{
  "version": "1.0",
  "truncation": null,
  "padding": null,
  "added_tokens": [
    {
      "id": 0,
      "content": "[PAD]",
      "single_word": false,
      "lstrip": false,
      "rstrip": false,
      "normalized": false,
      "special": true
    },
    {
      "id": 1,
      "content": "[UNK]",
      "single_word": false,
      "lstrip": false,
      "rstrip": false,
      "normalized": false,
      "special": true
    },
    {
      "id": 2,
      "content": "[CLS]",
      "single_word": false,
      "lstrip": false,
      "rstrip": false,
      "normalized": false,
      "special": true
    },
    {
      "id": 3,
      "content": "[SEP]",
      "single_word": false,
      "lstrip": false,
      "rstrip": false,
      "normalized": false,
      "special": true
    },
    {
      "id": 4,
      "content": "[MASK]",
      "single_word": false,
      "lstrip": false,
      "rstrip": false,
      "normalized": false,
      "special": true
    }
  ],
  "normalizer": {
    "type": "Sequence",
    "normalizers": [
      {
        "type": "Replace",
        "pattern": {
          "Regex": "(``|'')"
        },
        "content": "\""
      },
      {
        "type": "NFD"
      },
      {
        "type": "Lowercase"
      },
      {
        "type": "StripAccents"
      },
      {
        "type": "Replace",
        "pattern": {
          "Regex": " {2,}"
        },
        "content": " "
      },
      {
        "type": "Replace",
        "pattern": {
          "Regex": "[^\\x00-\\x7F]+"
        },
        "content": ""
      }
    ]
  },
  "pre_tokenizer": {
    "type": "BertPreTokenizer"
  },
  "post_processor": null,
  "decoder": {
    "type": "WordPiece",
    "prefix": "##",
    "cleanup": true
  },
  "model": {
    "type": "WordPiece",
    "unk_token": "[UNK]",
    "continuing_subword_prefix": "##",
    "max_input_chars_per_word": 100,
    "vocab": {
      "[PAD]": 0,
      "[UNK]": 1,
      "[CLS]": 2,
      "[SEP]": 3,
      "[MASK]": 4,
      "!": 5,
      "\"": 6,
      "#": 7,
      "$": 8,
      "%": 9,
      "&": 10,
      "'": 11,
      "(": 12,
      ")": 13,
      "*": 14,
      "+": 15,
      ",": 16,
      "-": 17,
      ".": 18,
      "/": 19,
      "0": 20,
      "1": 21,
      "2": 22,
      "3": 23,
      "4": 24,
      "5": 25,
      "6": 26,
      "7": 27,
      "8": 28,
      "9": 29,
      ":": 30,
      ";": 31,
      "<": 32,
      "=": 33,
      ">": 34,
      "?": 35,
      "@": 36,
      "[": 37,
      "\\": 38,
      "]": 39,
      "^": 40,
      "_": 41,
      "`": 42,
      "a": 43,
      "b": 44,
      "c": 45,
      "d": 46,
      "e": 47,
      "f": 48,
      "g": 49,
      "h": 50,
      "i": 51,
      "j": 52,
      "k": 53,
      "l": 54,
      "m": 55,
      "n": 56,
      "o": 57,
      "p": 58,
      "q": 59,
      "r": 60,
      "s": 61,
      "t": 62,
      "u": 63,
      "v": 64,
      "w": 65,
      "x": 66,
      "y": 67,
      "z": 68,
      "{": 69,
      "|": 70,
      "}": 71,
      "~": 72,
      "##a": 73,
      "##n": 74,
      "##d": 75,
      "##r": 76,
      "##y": 77,
      "##e": 78,
      "##s": 79,
      "##0": 80,
      "##9": 81,
      "##8": 82,
      "##6": 83,
      "##3": 84,
      "##1": 85,
      "##p": 86,
      "##o": 87,
      "##w": 88,
      "##i": 89,
      "##z": 90,
      "##c": 91,
      "##h": 92,
      "##u": 93,
      "##t": 94,
      "##l": 95,
      "##m": 96,
      "##k": 97,
      "##f": 98,
      "##5": 99,
      "##b": 100,
      "##j": 101,
      "##g": 102,
      "##v": 103,
      "##2": 104,
      "##4": 105,
      "##7": 106,
      "##q": 107,
      "##x": 108,
      "##he": 109,
      "##er": 110,
      "the": 111,
      "##in": 112,
      "##on": 113,
      "##ed": 114,
      "##nd": 115,
      "##or": 116,
      "##at": 117,
      "##es": 118,
      "##en": 119,
      "##an": 120,
      "##ar": 121,
      "in": 122,
      "##al": 123,
      "of": 124,
      "##is": 125,
      "##it": 126,
      "##ing": 127,
      "##ou": 128,
      "##as": 129,
      "and": 130,
      "to": 131,
      "##ic": 132,
      "##re": 133,
      "##ion": 134,
      "##om": 135,
      "##il": 136,
      "##el": 137,
      "th": 138,
      "##ent": 139,
      "##le": 140,
      "##st": 141,
      "##am": 142,
      "##ol": 143,
      "##ad": 144,
      "##ac": 145,
      "##et": 146,
      "##ec": 147,
      "st": 148,
      "##ur": 149,
      "##ot": 150,
      "on": 151,
      "was": 152,
      "##id": 153,
      "for": 154,
      "##ow": 155,
      "##ir": 156,
      "##ig": 157,
      "##ut": 158,
      "he": 159,
      "##ly": 160,
      "##iv": 161,
      "as": 162,
      "re": 163,
      "##ay": 164,
      "##ter": 165,
      "pr": 166,
      "al": 167,
      "is": 168,
      "##ation": 169,
      "19": 170,
      "##im": 171,
      "##ers": 172,
      "be": 173,
      "it": 174,
      "##ith": 175,
      "##ch": 176,
      "fr": 177,
      "with": 178,
      "##em": 179,
      "wh": 180,
      "an": 181,
      "##us": 182,
      "20": 183,
      "##os": 184,
      "at": 185,
      "##ist": 186,
      "##op": 187,
      "that": 188,
      "##and": 189,
      "ch": 190,
      "##ul": 191,
      "##th": 192,
      "##od": 193,
      "##ce": 194,
      "##ver": 195,
      "##ag": 196,
      "con": 197,
      "##ct": 198,
      "##her": 199,
      "##av": 200,
      "by": 201,
      "com": 202,
      "his": 203,
      "##um": 204,
      "##ain": 205,
      "##un": 206,
      "##est": 207,
      "##oc": 208,
      "from": 209,
      "##ess": 210,
      "se": 211,
      "##ap": 212,
      "##ld": 213,
      "de": 214,
      "you": 215,
      "ne": 216,
      "tr": 217,
      "##ill": 218,
      "##igh": 219,
      "##ov": 220,
      "##ab": 221,
      "her": 222,
      "##ak": 223,
      "##all": 224,
      "ar": 225,
      "un": 226,
      "or": 227,
      "sh": 228,
      "##if": 229,
      "ex": 230,
      "pl": 231,
      "##ian": 232,
      "le": 233,
      "##ies": 234,
      "##ard": 235,
      "su": 236,
      "##art": 237,
      "##ip": 238,
      "##ity": 239,
      "##ate": 240,
      "she": 241,
      "sp": 242,
      "##ber": 243,
      "##ia": 244,
      "br": 245,
      "##ant": 246,
      "##ie": 247,
      "##ort": 248,
      "##se": 249,
      "##gh": 250,
      "##ud": 251,
      "##ight": 252,
      "cou": 253,
      "##ell": 254,
      "not": 255,
      "are": 256,
      "en": 257,
      "##og": 258,
      "##ok": 259,
      "##ack": 260,
      "##ust": 261,
      "201": 262,
      "##ect": 263,
      "##ere": 264,
      "##ich": 265,
      "##ive": 266,
      "had": 267,
      "gr": 268,
      "##ge": 269,
      "##ore": 270,
      "##ear": 271,
      "wor": 272,
      "##ound": 273,
      "##ated": 274,
      "cl": 275,
      "##ast": 276,
      "##ave": 277,
      "##ong": 278,
      "were": 279,
      "200": 280,
      "##ary": 281,
      "##ial": 282,
      "this": 283,
      "##pp": 284,
      "but": 285,
      "##ment": 286,
      "##ish": 287,
      "me": 288,
      "whe": 289,
      "##our": 290,
      "we": 291,
      "am": 292,
      "##ame": 293,
      "##ough": 294,
      "##ine": 295,
      "##fer": 296,
      "##ue": 297,
      "ab": 298,
      "##ib": 299,
      "##ost": 300,
      "af": 301,
      "##out": 302,
      "all": 303,
      "go": 304,
      "comp": 305,
      "they": 306,
      "##ub": 307,
      "##ome": 308,
      "man": 309,
      "sc": 310,
      "mar": 311,
      "##ions": 312,
      "##ical": 313,
      "##ik": 314,
      "ad": 315,
      "##so": 316,
      "##own": 317,
      "##ces": 318,
      "int": 319,
      "one": 320,
      "which": 321,
      "##ous": 322,
      "new": 323,
      "18": 324,
      "have": 325,
      "cr": 326,
      "##pt": 327,
      "##hed": 328,
      "##ord": 329,
      "up": 330,
      "rec": 331,
      "##uc": 332,
      "can": 333,
      "##ure": 334,
      "##ass": 335,
      "also": 336,
      "out": 337,
      "##qu": 338,
      "##ign": 339,
      "##iz": 340,
      "##ks": 341,
      "fir": 342,
      "my": 343,
      "##age": 344,
      "res": 345,
      "##ide": 346,
      "ac": 347,
      "do": 348,
      "us": 349,
      "ser": 350,
      "##ould": 351,
      "play": 352,
      "him": 353,
      "##tern": 354,
      "car": 355,
      "##ire": 356,
      "##ther": 357,
      "##ice": 358,
      "ro": 359,
      "ag": 360,
      "dr": 361,
      "##ace": 362,
      "their": 363,
      "kn": 364,
      "sa": 365,
      "pe": 366,
      "col": 367,
      "##ook": 368,
      "tim": 369,
      "who": 370,
      "cont": 371,
      "fe": 372,
      "tw": 373,
      "##ond": 374,
      "first": 375,
      "##per": 376,
      "##nt": 377,
      "##ans": 378,
      "so": 379,
      "inc": 380,
      "##one": 381,
      "##ind": 382,
      "##ry": 383,
      "part": 384,
      "comm": 385,
      "##ied": 386,
      "##ang": 387,
      "has": 388,
      "te": 389,
      "##pr": 390,
      "##ach": 391,
      "##ence": 392,
      "##ember": 393,
      "after": 394,
      "there": 395,
      "199": 396,
      "##act": 397,
      "##ally": 398,
      "year": 399,
      "bl": 400,
      "##ory": 401,
      "##orn": 402,
      "per": 403,
      "ind": 404,
      "ev": 405,
      "##aw": 406,
      "##man": 407,
      "##ater": 408,
      "##ations": 409,
      "co": 410,
      "off": 411,
      "##ict": 412,
      "rel": 413,
      "##ult": 414,
      "cent": 415,
      "when": 416,
      "other": 417,
      "##ree": 418,
      "app": 419,
      "its": 420,
      "dis": 421,
      "no": 422,
      "##ath": 423,
      "##ican": 424,
      "would": 425,
      "##ick": 426,
      "im": 427,
      "bec": 428,
      "over": 429,
      "##ose": 430,
      "##ens": 431,
      "##pl": 432,
      "##ile": 433,
      "##ople": 434,
      "##ational": 435,
      "##ite": 436,
      "been": 437,
      "jo": 438,
      "des": 439,
      "##ences": 440,
      "fl": 441,
      "##ition": 442,
      "into": 443,
      "refer": 444,
      "##land": 445,
      "##ff": 446,
      "two": 447,
      "str": 448,
      "##ug": 449,
      "time": 450,
      "##ake": 451,
      "pro": 452,
      "sch": 453,
      "##amp": 454,
      "##ade": 455,
      "##ild": 456,
      "##ance": 457,
      "act": 458,
      "##way": 459,
      "people": 460,
      "##uct": 461,
      "par": 462,
      "##ail": 463,
      "##oll": 464,
      "##ely": 465,
      "will": 466,
      "amer": 467,
      "##itt": 468,
      "##nder": 469,
      "##ward": 470,
      "##ents": 471,
      "##ates": 472,
      "qu": 473,
      "##ings": 474,
      "##ited": 475,
      "##urn": 476,
      "##iss": 477,
      "##00": 478,
      "them": 479,
      "fil": 480,
      "back": 481,
      "what": 482,
      "##ra": 483,
      "ed": 484,
      "ph": 485,
      "##ike": 486,
      "about": 487,
      "##able": 488,
      "##int": 489,
      "##ors": 490,
      "##end": 491,
      "##ool": 492,
      "some": 493,
      "pre": 494,
      "dec": 495,
      "##old": 496,
      "##oss": 497,
      "198": 498,
      "sec": 499,
      "##ey": 500,
      "pol": 501,
      "ass": 502,
      "thr": 503,
      "##lect": 504,
      "##ood": 505,
      "form": 506,
      "##ep": 507,
      "references": 508,
      "##ock": 509,
      "##ft": 510,
      "##ubl": 511,
      "more": 512,
      "##ivers": 513,
      "may": 514,
      "wr": 515,
      "##wn": 516,
      "##les": 517,
      "##ase": 518,
      "##orm": 519,
      "then": 520,
      "##lud": 521,
      "mus": 522,
      "film": 523,
      "how": 524,
      "##we": 525,
      "fin": 526,
      "reg": 527,
      "em": 528,
      "##ah": 529,
      "sm": 530,
      "##ro": 531,
      "bo": 532,
      "if": 533,
      "bu": 534,
      "##ogr": 535,
      "work": 536,
      "said": 537,
      "##other": 538,
      "##eld": 539,
      "under": 540,
      "american": 541,
      "gre": 542,
      "count": 543,
      "gu": 544,
      "gen": 545,
      "did": 546,
      "bet": 547,
      "again": 548,
      "##io": 549,
      "##uring": 550,
      "includ": 551,
      "war": 552,
      "ear": 553,
      "##oot": 554,
      "##ased": 555,
      "eng": 556,
      "##ball": 557,
      "serv": 558,
      "art": 559,
      "lin": 560,
      "##hn": 561,
      "##az": 562,
      "att": 563,
      "school": 564,
      "197": 565,
      "##ons": 566,
      "##hip": 567,
      "only": 568,
      "sy": 569,
      "##ious": 570,
      "could": 571,
      "see": 572,
      "##ife": 573,
      "min": 574,
      "##ics": 575,
      "like": 576,
      "##als": 577,
      "##air": 578,
      "just": 579,
      "##aus": 580,
      "##port": 581,
      "po": 582,
      "world": 583,
      "##gan": 584,
      "univers": 585,
      "dist": 586,
      "any": 587,
      "pres": 588,
      "cons": 589,
      "where": 590,
      "than": 591,
      "acc": 592,
      "##vel": 593,
      "##fore": 594,
      "hist": 595,
      "through": 596,
      "##au": 597,
      "##ished": 598,
      "inter": 599,
      "##ily": 600,
      "publ": 601,
      "nor": 602,
      "##let": 603,
      "196": 604,
      "mon": 605,
      "rem": 606,
      "##ix": 607,
      "##anc": 608,
      "loc": 609,
      "day": 610,
      "##ale": 611,
      "##pen": 612,
      "##outh": 613,
      "during": 614,
      "med": 615,
      "##ision": 616,
      "char": 617,
      "##ery": 618,
      "ever": 619,
      "##oth": 620,
      "##elf": 621,
      "##olog": 622,
      "##br": 623,
      "##ett": 624,
      "##cc": 625,
      "most": 626,
      "look": 627,
      "stud": 628,
      "##ason": 629,
      "before": 630,
      "##ove": 631,
      "ma": 632,
      "##led": 633,
      "##ert": 634,
      "found": 635,
      "foot": 636,
      "prod": 637,
      "your": 638,
      "##hes": 639,
      "ret": 640,
      "##ury": 641,
      "sl": 642,
      "##ier": 643,
      "right": 644,
      "##ral": 645,
      "down": 646,
      "##ames": 647,
      "now": 648,
      "el": 649,
      "well": 650,
      "sub": 651,
      "national": 652,
      "##ton": 653,
      "##ked": 654,
      "university": 655,
      "##ouse": 656,
      "air": 657,
      "##ince": 658,
      "made": 659,
      "team": 660,
      "end": 661,
      "years": 662,
      "##hing": 663,
      "fam": 664,
      "high": 665,
      "##ather": 666,
      "inst": 667,
      "##form": 668,
      "##ating": 669,
      "sur": 670,
      "united": 671,
      "hand": 672,
      "liv": 673,
      "##ists": 674,
      "bel": 675,
      "elect": 676,
      "##att": 677,
      "##ollow": 678,
      "know": 679,
      "head": 680,
      "call": 681,
      "arm": 682,
      "state": 683,
      "##uary": 684,
      "trans": 685,
      "second": 686,
      "spec": 687,
      "17": 688,
      "follow": 689,
      "while": 690,
      "three": 691,
      "##ev": 692,
      "est": 693,
      "##son": 694,
      "bar": 695,
      "##iet": 696,
      "sing": 697,
      "##ann": 698,
      "city": 699,
      "##ph": 700,
      "194": 701,
      "##irect": 702,
      "##ank": 703,
      "def": 704,
      "##gr": 705,
      "##ween": 706,
      "wom": 707,
      "##ped": 708,
      "life": 709,
      "long": 710,
      "between": 711,
      "##ters": 712,
      "met": 713,
      "direct": 714,
      "##ternal": 715,
      "cre": 716,
      "195": 717,
      "##ities": 718,
      "gl": 719,
      "##ual": 720,
      "record": 721,
      "pop": 722,
      "cap": 723,
      "born": 724,
      "later": 725,
      "##ement": 726,
      "contr": 727,
      "##ink": 728,
      "gener": 729,
      "##ys": 730,
      "##up": 731,
      "south": 732,
      "don": 733,
      "##ative": 734,
      "sw": 735,
      "football": 736,
      "##oup": 737,
      "##ork": 738,
      "##are": 739,
      "bir": 740,
      "##ular": 741,
      "10": 742,
      "ter": 743,
      "##ought": 744,
      "win": 745,
      "pers": 746,
      "prov": 747,
      "inv": 748,
      "##der": 749,
      "being": 750,
      "id": 751,
      "states": 752,
      "la": 753,
      "mov": 754,
      "alb": 755,
      "##ower": 756,
      "##ise": 757,
      "rev": 758,
      "##enn": 759,
      "##vern": 760,
      "##aph": 761,
      "way": 762,
      "such": 763,
      "distr": 764,
      "nov": 765,
      "##ont": 766,
      "these": 767,
      "##ri": 768,
      "soc": 769,
      "##ina": 770,
      "group": 771,
      "external": 772,
      "ge": 773,
      "house": 774,
      "num": 775,
      "##enc": 776,
      "open": 777,
      "many": 778,
      "##ause": 779,
      "lar": 780,
      "##ific": 781,
      "mem": 782,
      "links": 783,
      "mat": 784,
      "ob": 785,
      "list": 786,
      "##ject": 787,
      "govern": 788,
      "players": 789,
      "north": 790,
      "own": 791,
      "john": 792,
      "##ful": 793,
      "care": 794,
      "supp": 795,
      "##sp": 796,
      "##ob": 797,
      "rele": 798,
      "used": 799,
      "ann": 800,
      "get": 801,
      "four": 802,
      "##ount": 803,
      "##oy": 804,
      "##til": 805,
      "every": 806,
      "##ield": 807,
      "##ning": 808,
      "dep": 809,
      "compan": 810,
      "around": 811,
      "16": 812,
      "##ott": 813,
      "music": 814,
      "even": 815,
      "##20": 816,
      "want": 817,
      "both": 818,
      "##ull": 819,
      "season": 820,
      "##cr": 821,
      "che": 822,
      "mu": 823,
      "##xt": 824,
      "15": 825,
      "##ope": 826,
      "##ional": 827,
      "##iam": 828,
      "start": 829,
      "show": 830,
      "##ric": 831,
      "bre": 832,
      "against": 833,
      "lead": 834,
      "jun": 835,
      "add": 836,
      "193": 837,
      "song": 838,
      "hel": 839,
      "##lish": 840,
      "offic": 841,
      "century": 842,
      "##ures": 843,
      "ger": 844,
      "old": 845,
      "##ident": 846,
      "##erv": 847,
      "##ley": 848,
      "##its": 849,
      "##omet": 850,
      "mod": 851,
      "book": 852,
      "##ern": 853,
      "known": 854,
      "##ins": 855,
      "award": 856,
      "cour": 857,
      "##aking": 858,
      "##ew": 859,
      "album": 860,
      "wal": 861,
      "chr": 862,
      "sk": 863,
      "history": 864,
      "har": 865,
      "##iew": 866,
      "##ths": 867,
      "##ague": 868,
      "cur": 869,
      "cor": 870,
      "death": 871,
      "aust": 872,
      "sim": 873,
      "##nc": 874,
      "until": 875,
      "series": 876,
      "build": 877,
      "##ever": 878,
      "oper": 879,
      "##ee": 880,
      "class": 881,
      "run": 882,
      "intern": 883,
      "12": 884,
      "prof": 885,
      "##velop": 886,
      "aut": 887,
      "##uss": 888,
      "##red": 889,
      "##iver": 890,
      "jan": 891,
      "left": 892,
      "##els": 893,
      "##aint": 894,
      "commun": 895,
      "##ism": 896,
      "##iev": 897,
      "##str": 898,
      "turn": 899,
      "say": 900,
      "sign": 901,
      "ey": 902,
      "##ained": 903,
      "mil": 904,
      "since": 905,
      "family": 906,
      "##ior": 907,
      "red": 908,
      "child": 909,
      "county": 910,
      "became": 911,
      "dif": 912,
      "develop": 913,
      "##uction": 914,
      "town": 915,
      "##bers": 916,
      "##eng": 917,
      "good": 918,
      "exp": 919,
      "##ark": 920,
      "because": 921,
      "champ": 922,
      "our": 923,
      "polit": 924,
      "##ograph": 925,
      "div": 926,
      "##ently": 927,
      "11": 928,
      "dem": 929,
      "##ese": 930,
      "law": 931,
      "cal": 932,
      "still": 933,
      "need": 934,
      "miss": 935,
      "##ible": 936,
      "##ange": 937,
      "person": 938,
      "##co": 939,
      "##ner": 940,
      "brit": 941,
      "place": 942,
      "rep": 943,
      "##urch": 944,
      "##ister": 945,
      "district": 946,
      "##uck": 947,
      "rece": 948,
      "bus": 949,
      "name": 950,
      "##ized": 951,
      "league": 952,
      "##ash": 953,
      "point": 954,
      "##ually": 955,
      "public": 956,
      "##ural": 957,
      "tel": 958,
      "##ble": 959,
      "##ived": 960,
      "home": 961,
      "##get": 962,
      "land": 963,
      "ju": 964,
      "appear": 965,
      "king": 966,
      "each": 967,
      "ve": 968,
      "same": 969,
      "star": 970,
      "##stem": 971,
      "191": 972,
      "##ret": 973,
      "##ourn": 974,
      "women": 975,
      "orig": 976,
      "early": 977,
      "including": 978,
      "west": 979,
      "club": 980,
      "##ments": 981,
      "sever": 982,
      "pass": 983,
      "##ll": 984,
      "progr": 985,
      "ke": 986,
      "av": 987,
      "##ient": 988,
      "##ined": 989,
      "val": 990,
      "##augh": 991,
      "##und": 992,
      "##ene": 993,
      "##ty": 994,
      "##amed": 995,
      "estab": 996,
      "##ution": 997,
      "pat": 998,
      "living": 999,
      "ext": 1000,
      "conc": 1001,
      "system": 1002,
      "took": 1003,
      "tre": 1004,
      "somet": 1005,
      "prop": 1006,
      "##0s": 1007,
      "men": 1008,
      "colle": 1009,
      "##ians": 1010,
      "##inc": 1011,
      "contin": 1012,
      "##ai": 1013,
      "number": 1014,
      "var": 1015,
      "##ling": 1016,
      "best": 1017,
      "##yp": 1018,
      "however": 1019,
      "let": 1020,
      "del": 1021,
      "german": 1022,
      "##osed": 1023,
      "inf": 1024,
      "hum": 1025,
      "called": 1026,
      "near": 1027,
      "another": 1028,
      "make": 1029,
      "origin": 1030,
      "design": 1031,
      "ins": 1032,
      "last": 1033,
      "14": 1034,
      "##by": 1035,
      "13": 1036,
      "game": 1037,
      "##mer": 1038,
      "leg": 1039,
      "##ody": 1040,
      "return": 1041,
      "prot": 1042,
      "much": 1043,
      "set": 1044,
      "##ised": 1045,
      "##ute": 1046,
      "international": 1047,
      "resp": 1048,
      "##ek": 1049,
      "bas": 1050,
      "##che": 1051,
      "192": 1052,
      "##ology": 1053,
      "should": 1054,
      "area": 1055,
      "organ": 1056,
      "small": 1057,
      "here": 1058,
      "ang": 1059,
      "aug": 1060,
      "mag": 1061,
      "far": 1062,
      "port": 1063,
      "##cept": 1064,
      "won": 1065,
      "mid": 1066,
      "##ains": 1067,
      "##eter": 1068,
      "##iter": 1069,
      "god": 1070,
      "real": 1071,
      "##ady": 1072,
      "ir": 1073,
      "company": 1074,
      "oct": 1075,
      "very": 1076,
      "##oci": 1077,
      "##bert": 1078,
      "ra": 1079,
      "following": 1080,
      "york": 1081,
      "maj": 1082,
      "great": 1083,
      "think": 1084,
      "use": 1085,
      "former": 1086,
      "march": 1087,
      "##ica": 1088,
      "##19": 1089,
      "ent": 1090,
      "arr": 1091,
      "those": 1092,
      "sept": 1093,
      "government": 1094,
      "conf": 1095,
      "austral": 1096,
      "##ered": 1097,
      "associ": 1098,
      "##aving": 1099,
      "##ren": 1100,
      "career": 1101,
      "##self": 1102,
      "several": 1103,
      "##ng": 1104,
      "adv": 1105,
      "general": 1106,
      "august": 1107,
      "stre": 1108,
      "champions": 1109,
      "order": 1110,
      "take": 1111,
      "##ief": 1112,
      "main": 1113,
      "align": 1114,
      "british": 1115,
      "repr": 1116,
      "eur": 1117,
      "never": 1118,
      "##ung": 1119,
      "##ying": 1120,
      "stand": 1121,
      "##ium": 1122,
      "christ": 1123,
      "black": 1124,
      "september": 1125,
      "##ants": 1126,
      "##ature": 1127,
      "rest": 1128,
      "##erg": 1129,
      "##iend": 1130,
      "ep": 1131,
      "based": 1132,
      "##ital": 1133,
      "##ober": 1134,
      "##ives": 1135,
      "##min": 1136,
      "vill": 1137,
      "##ages": 1138,
      "films": 1139,
      "along": 1140,
      "##ues": 1141,
      "didn": 1142,
      "eff": 1143,
      "october": 1144,
      "away": 1145,
      "differ": 1146,
      "##ided": 1147,
      "began": 1148,
      "water": 1149,
      "##ected": 1150,
      "result": 1151,
      "educ": 1152,
      "##ets": 1153,
      "##ired": 1154,
      "played": 1155,
      "games": 1156,
      "prom": 1157,
      "apr": 1158,
      "arch": 1159,
      "camp": 1160,
      "january": 1161,
      "##ility": 1162,
      "side": 1163,
      "ste": 1164,
      "##ime": 1165,
      "top": 1166,
      "##ane": 1167,
      "thir": 1168,
      "released": 1169,
      "members": 1170,
      "college": 1171,
      "june": 1172,
      "litt": 1173,
      "##ience": 1174,
      "power": 1175,
      "##ows": 1176,
      "going": 1177,
      "spe": 1178,
      "line": 1179,
      "##ness": 1180,
      "21": 1181,
      "major": 1182,
      "##ued": 1183,
      "sum": 1184,
      "center": 1185,
      "##bs": 1186,
      "thought": 1187,
      "church": 1188,
      "##ony": 1189,
      "sen": 1190,
      "##ured": 1191,
      "program": 1192,
      "profess": 1193,
      "july": 1194,
      "little": 1195,
      "##ae": 1196,
      "##ilt": 1197,
      "##aced": 1198,
      "##ched": 1199,
      "cle": 1200,
      "##ices": 1201,
      "##ulation": 1202,
      "##ection": 1203,
      "##uced": 1204,
      "tal": 1205,
      "english": 1206,
      "april": 1207,
      "##gin": 1208,
      "mill": 1209,
      "##ats": 1210,
      "held": 1211,
      "canad": 1212,
      "complet": 1213,
      "ll": 1214,
      "##app": 1215,
      "##ially": 1216,
      "##ator": 1217,
      "east": 1218,
      "##uk": 1219,
      "##iness": 1220,
      "mark": 1221,
      "eyes": 1222,
      "##ize": 1223,
      "too": 1224,
      "es": 1225,
      "##ically": 1226,
      "##ple": 1227,
      "band": 1228,
      "pa": 1229,
      "november": 1230,
      "came": 1231,
      "rad": 1232,
      "##ench": 1233,
      "##yl": 1234,
      "ref": 1235,
      "000": 1236,
      "manag": 1237,
      "light": 1238,
      "##aces": 1239,
      "party": 1240,
      "##sh": 1241,
      "##ote": 1242,
      "hal": 1243,
      "##hern": 1244,
      "tit": 1245,
      "histor": 1246,
      "births": 1247,
      "##yle": 1248,
      "beh": 1249,
      "##aining": 1250,
      "mo": 1251,
      "december": 1252,
      "##por": 1253,
      "##olv": 1254,
      "young": 1255,
      "2010": 1256,
      "road": 1257,
      "father": 1258,
      "short": 1259,
      "phil": 1260,
      "occ": 1261,
      "president": 1262,
      "descr": 1263,
      "partic": 1264,
      "few": 1265,
      "ant": 1266,
      "night": 1267,
      "pos": 1268,
      "##ines": 1269,
      "park": 1270,
      "find": 1271,
      "##esent": 1272,
      "support": 1273,
      "##iting": 1274,
      "##mp": 1275,
      "vol": 1276,
      "disc": 1277,
      "##ax": 1278,
      "ec": 1279,
      "tec": 1280,
      "member": 1281,
      "kill": 1282,
      "station": 1283,
      "##day": 1284,
      "friend": 1285,
      "championship": 1286,
      "##ne": 1287,
      "rom": 1288,
      "ii": 1289,
      "sal": 1290,
      "son": 1291,
      "compet": 1292,
      "##ried": 1293,
      "##ts": 1294,
      "local": 1295,
      "sil": 1296,
      "##ison": 1297,
      "##te": 1298,
      "come": 1299,
      "##ately": 1300,
      "final": 1301,
      "vis": 1302,
      "fre": 1303,
      "##oad": 1304,
      "prev": 1305,
      "went": 1306,
      "room": 1307,
      "2011": 1308,
      "##hor": 1309,
      "europe": 1310,
      "rail": 1311,
      "##que": 1312,
      "face": 1313,
      "geor": 1314,
      "six": 1315,
      "##eal": 1316,
      "fur": 1317,
      "##ms": 1318,
      "##thing": 1319,
      "telev": 1320,
      "##aster": 1321,
      "next": 1322,
      "##ds": 1323,
      "##akes": 1324,
      "vo": 1325,
      "lang": 1326,
      "sport": 1327,
      "post": 1328,
      "##ention": 1329,
      "white": 1330,
      "mount": 1331,
      "##ata": 1332,
      "##lex": 1333,
      "##ography": 1334,
      "giv": 1335,
      "conv": 1336,
      "five": 1337,
      "##apan": 1338,
      "2012": 1339,
      "mal": 1340,
      "2008": 1341,
      "help": 1342,
      "##med": 1343,
      "river": 1344,
      "25": 1345,
      "love": 1346,
      "##bruary": 1347,
      "batt": 1348,
      "30": 1349,
      "190": 1350,
      "february": 1351,
      "##ham": 1352,
      "##ode": 1353,
      "island": 1354,
      "something": 1355,
      "television": 1356,
      "##onom": 1357,
      "track": 1358,
      "##ival": 1359,
      "##press": 1360,
      "japan": 1361,
      "2009": 1362,
      "charac": 1363,
      "age": 1364,
      "expl": 1365,
      "children": 1366,
      "##oph": 1367,
      "gir": 1368,
      "asked": 1369,
      "##ana": 1370,
      "service": 1371,
      "looked": 1372,
      "within": 1373,
      "##ama": 1374,
      "sat": 1375,
      "tell": 1376,
      "got": 1377,
      "put": 1378,
      "vers": 1379,
      "##ards": 1380,
      "##atch": 1381,
      "report": 1382,
      "2014": 1383,
      "##ides": 1384,
      "sol": 1385,
      "##elt": 1386,
      "cond": 1387,
      "##ared": 1388,
      "2013": 1389,
      "2007": 1390,
      "##ress": 1391,
      "represent": 1392,
      "##ended": 1393,
      "typ": 1394,
      "without": 1395,
      "2006": 1396,
      "event": 1397,
      "does": 1398,
      "##yn": 1399,
      "##bo": 1400,
      "named": 1401,
      "techn": 1402,
      "business": 1403,
      "read": 1404,
      "##be": 1405,
      "super": 1406,
      "##iety": 1407,
      "##alth": 1408,
      "times": 1409,
      "dav": 1410,
      "##eder": 1411,
      "stat": 1412,
      "##21": 1413,
      "##ored": 1414,
      "feat": 1415,
      "french": 1416,
      "fact": 1417,
      "2015": 1418,
      "large": 1419,
      "field": 1420,
      "bi": 1421,
      "bur": 1422,
      "##ford": 1423,
      "repl": 1424,
      "cast": 1425,
      "##lished": 1426,
      "press": 1427,
      "william": 1428,
      "##hen": 1429,
      "##ways": 1430,
      "building": 1431,
      "enter": 1432,
      "single": 1433,
      "exper": 1434,
      "2016": 1435,
      "succ": 1436,
      "due": 1437,
      "proc": 1438,
      "##for": 1439,
      "vict": 1440,
      "hol": 1441,
      "##itions": 1442,
      "deb": 1443,
      "##ged": 1444,
      "squ": 1445,
      "ele": 1446,
      "##ster": 1447,
      "lab": 1448,
      "curr": 1449,
      "died": 1450,
      "##ars": 1451,
      "##me": 1452,
      "er": 1453,
      "feel": 1454,
      "##osp": 1455,
      "189": 1456,
      "present": 1457,
      "different": 1458,
      "tem": 1459,
      "hon": 1460,
      "ap": 1461,
      "russ": 1462,
      "##ified": 1463,
      "langu": 1464,
      "eas": 1465,
      "mor": 1466,
      "##ara": 1467,
      "##gest": 1468,
      "##atic": 1469,
      "##ted": 1470,
      "poss": 1471,
      "milit": 1472,
      "##ten": 1473,
      "sound": 1474,
      "stop": 1475,
      "though": 1476,
      "located": 1477,
      "success": 1478,
      "body": 1479,
      "sn": 1480,
      "ship": 1481,
      "##wards": 1482,
      "third": 1483,
      "consid": 1484,
      "why": 1485,
      "army": 1486,
      "det": 1487,
      "grand": 1488,
      "##af": 1489,
      "cult": 1490,
      "round": 1491,
      "resear": 1492,
      "san": 1493,
      "depart": 1494,
      "##oke": 1495,
      "girl": 1496,
      "roy": 1497,
      "must": 1498,
      "author": 1499,
      "##col": 1500,
      "cup": 1501,
      "once": 1502,
      "wind": 1503,
      "started": 1504,
      "established": 1505,
      "##ency": 1506,
      "built": 1507,
      "##ps": 1508,
      "rock": 1509,
      "vi": 1510,
      "pal": 1511,
      "country": 1512,
      "opp": 1513,
      "ital": 1514,
      "fac": 1515,
      "net": 1516,
      "pur": 1517,
      "2017": 1518,
      "division": 1519,
      "population": 1520,
      "hard": 1521,
      "lond": 1522,
      "##ech": 1523,
      "human": 1524,
      "front": 1525,
      "wa": 1526,
      "##cl": 1527,
      "##ron": 1528,
      "24": 1529,
      "non": 1530,
      "li": 1531,
      "requ": 1532,
      "command": 1533,
      "hold": 1534,
      "##na": 1535,
      "##idge": 1536,
      "style": 1537,
      "equ": 1538,
      "mer": 1539,
      "2018": 1540,
      "engine": 1541,
      "gold": 1542,
      "project": 1543,
      "collect": 1544,
      "big": 1545,
      "mother": 1546,
      "##ino": 1547,
      "london": 1548,
      "describ": 1549,
      "door": 1550,
      "mom": 1551,
      "##adem": 1552,
      "##ission": 1553,
      "##aim": 1554,
      "##side": 1555,
      "##king": 1556,
      "counc": 1557,
      "instit": 1558,
      "##ma": 1559,
      "##aff": 1560,
      "##ones": 1561,
      "##den": 1562,
      "capt": 1563,
      "##omin": 1564,
      "##ring": 1565,
      "conn": 1566,
      "tour": 1567,
      "##ger": 1568,
      "player": 1569,
      "special": 1570,
      "const": 1571,
      "published": 1572,
      "received": 1573,
      "sit": 1574,
      "accord": 1575,
      "##ches": 1576,
      "##ani": 1577,
      "official": 1578,
      "##bur": 1579,
      "level": 1580,
      "seem": 1581,
      "terr": 1582,
      "fun": 1583,
      "among": 1584,
      "served": 1585,
      "2005": 1586,
      "2019": 1587,
      "court": 1588,
      "story": 1589,
      "moved": 1590,
      "oly": 1591,
      "dou": 1592,
      "##ille": 1593,
      "##ached": 1594,
      "##less": 1595,
      "alth": 1596,
      "aff": 1597,
      "further": 1598,
      "having": 1599,
      "lou": 1600,
      "although": 1601,
      "believ": 1602,
      "brother": 1603,
      "association": 1604,
      "iss": 1605,
      "inform": 1606,
      "free": 1607,
      "olymp": 1608,
      "mich": 1609,
      "vir": 1610,
      "##res": 1611,
      "village": 1612,
      "education": 1613,
      "journ": 1614,
      "dev": 1615,
      "cover": 1616,
      "hall": 1617,
      "saw": 1618,
      "himself": 1619,
      "chang": 1620,
      "street": 1621,
      "lim": 1622,
      "188": 1623,
      "indian": 1624,
      "##ounc": 1625,
      "works": 1626,
      "vide": 1627,
      "##umb": 1628,
      "addition": 1629,
      "social": 1630,
      "common": 1631,
      "sam": 1632,
      "military": 1633,
      "led": 1634,
      "species": 1635,
      "##ively": 1636,
      "##ization": 1637,
      "cross": 1638,
      "nort": 1639,
      "full": 1640,
      "fire": 1641,
      "22": 1642,
      "week": 1643,
      "council": 1644,
      "##rew": 1645,
      "23": 1646,
      "que": 1647,
      "##yr": 1648,
      "##par": 1649,
      "##ler": 1650,
      "academ": 1651,
      "import": 1652,
      "##estern": 1653,
      "##oint": 1654,
      "##gether": 1655,
      "together": 1656,
      "##ality": 1657,
      "mot": 1658,
      "sev": 1659,
      "lo": 1660,
      "days": 1661,
      "fem": 1662,
      "crit": 1663,
      "cam": 1664,
      "bill": 1665,
      "2004": 1666,
      "jud": 1667,
      "central": 1668,
      "half": 1669,
      "development": 1670,
      "tot": 1671,
      "sett": 1672,
      "rich": 1673,
      "sel": 1674,
      "fall": 1675,
      "mean": 1676,
      "##itor": 1677,
      "sold": 1678,
      "di": 1679,
      "live": 1680,
      "attack": 1681,
      "##ots": 1682,
      "research": 1683,
      "2020": 1684,
      "late": 1685,
      "perform": 1686,
      "ran": 1687,
      "mind": 1688,
      "turned": 1689,
      "according": 1690,
      "trad": 1691,
      "office": 1692,
      "wall": 1693,
      "constr": 1694,
      "##esh": 1695,
      "##istr": 1696,
      "often": 1697,
      "mun": 1698,
      "##irc": 1699,
      "given": 1700,
      "##ably": 1701,
      "base": 1702,
      "behind": 1703,
      "ill": 1704,
      "bal": 1705,
      "keep": 1706,
      "surv": 1707,
      "activ": 1708,
      "##lin": 1709,
      "##iod": 1710,
      "mur": 1711,
      "sout": 1712,
      "incre": 1713,
      "test": 1714,
      "mass": 1715,
      "allow": 1716,
      "##fe": 1717,
      "ten": 1718,
      "male": 1719,
      "##aken": 1720,
      "2000": 1721,
      "acr": 1722,
      "things": 1723,
      "royal": 1724,
      "##ument": 1725,
      "##ops": 1726,
      "nat": 1727,
      "nav": 1728,
      "sent": 1729,
      "union": 1730,
      "tom": 1731,
      "heart": 1732,
      "prim": 1733,
      "##ipp": 1734,
      "chap": 1735,
      "community": 1736,
      "uk": 1737,
      "appro": 1738,
      "dam": 1739,
      "##itten": 1740,
      "director": 1741,
      "lat": 1742,
      "language": 1743,
      "lost": 1744,
      "##ering": 1745,
      "intr": 1746,
      "##ned": 1747,
      "become": 1748,
      "period": 1749,
      "republ": 1750,
      "je": 1751,
      "original": 1752,
      "##ming": 1753,
      "186": 1754,
      "include": 1755,
      "##line": 1756,
      "effect": 1757,
      "broad": 1758,
      "##ither": 1759,
      "meet": 1760,
      "felt": 1761,
      "mc": 1762,
      "imp": 1763,
      "summer": 1764,
      "plan": 1765,
      "epis": 1766,
      "circ": 1767,
      "green": 1768,
      "##tt": 1769,
      "ground": 1770,
      "woman": 1771,
      "political": 1772,
      "econom": 1773,
      "james": 1774,
      "##umn": 1775,
      "control": 1776,
      "26": 1777,
      "##ances": 1778,
      "tur": 1779,
      "##rop": 1780,
      "others": 1781,
      "wood": 1782,
      "across": 1783,
      "civ": 1784,
      "jack": 1785,
      "told": 1786,
      "heav": 1787,
      "fell": 1788,
      "dark": 1789,
      "force": 1790,
      "##ground": 1791,
      "den": 1792,
      "included": 1793,
      "cas": 1794,
      "opened": 1795,
      "knew": 1796,
      "##ament": 1797,
      "mr": 1798,
      "100": 1799,
      "sun": 1800,
      "187": 1801,
      "might": 1802,
      "hour": 1803,
      "cat": 1804,
      "2003": 1805,
      "##ipt": 1806,
      "video": 1807,
      "oh": 1808,
      "step": 1809,
      "##ape": 1810,
      "making": 1811,
      "really": 1812,
      "hor": 1813,
      "ur": 1814,
      "less": 1815,
      "##ael": 1816,
      "space": 1817,
      "paul": 1818,
      "##ky": 1819,
      "##sw": 1820,
      "past": 1821,
      "secret": 1822,
      "##uel": 1823,
      "27": 1824,
      "cy": 1825,
      "process": 1826,
      "##ico": 1827,
      "announc": 1828,
      "character": 1829,
      "england": 1830,
      "##ges": 1831,
      "alm": 1832,
      "init": 1833,
      "##oved": 1834,
      "28": 1835,
      "previous": 1836,
      "western": 1837,
      "interest": 1838,
      "arg": 1839,
      "using": 1840,
      "robert": 1841,
      "##ius": 1842,
      "society": 1843,
      "##eth": 1844,
      "calif": 1845,
      "mart": 1846,
      "roman": 1847,
      "hig": 1848,
      "##arr": 1849,
      "muse": 1850,
      "ren": 1851,
      "##stand": 1852,
      "hot": 1853,
      "californ": 1854,
      "coll": 1855,
      "voice": 1856,
      "grad": 1857,
      "gave": 1858,
      "##dom": 1859,
      "dest": 1860,
      "david": 1861,
      "quest": 1862,
      "production": 1863,
      "sure": 1864,
      "always": 1865,
      "##ries": 1866,
      "radio": 1867,
      "##acy": 1868,
      "election": 1869,
      "trav": 1870,
      "written": 1871,
      "australia": 1872,
      "##elv": 1873,
      "##ru": 1874,
      "2001": 1875,
      "exc": 1876,
      "california": 1877,
      "##oor": 1878,
      "##ald": 1879,
      "##ka": 1880,
      "##work": 1881,
      "2002": 1882,
      "sour": 1883,
      "##aut": 1884,
      "thom": 1885,
      "deaths": 1886,
      "cert": 1887,
      "wanted": 1888,
      "##ha": 1889,
      "##ising": 1890,
      "health": 1891,
      "department": 1892,
      "##ting": 1893,
      "enough": 1894,
      "##empt": 1895,
      "mad": 1896,
      "##oney": 1897,
      "##field": 1898,
      "hands": 1899,
      "low": 1900,
      "fa": 1901,
      "##ays": 1902,
      "hy": 1903,
      "continued": 1904,
      "involv": 1905,
      "##ibut": 1906,
      "##hel": 1907,
      "ple": 1908,
      "##dle": 1909,
      "george": 1910,
      "invest": 1911,
      "phys": 1912,
      "view": 1913,
      "##ecut": 1914,
      "indust": 1915,
      "der": 1916,
      "##aps": 1917,
      "title": 1918,
      "##ogn": 1919,
      "mult": 1920,
      "pract": 1921,
      "##ream": 1922,
      "seen": 1923,
      "better": 1924,
      "##ilar": 1925,
      "bg": 1926,
      "hill": 1927,
      "rout": 1928,
      "ide": 1929,
      "museum": 1930,
      "case": 1931,
      "upon": 1932,
      "admin": 1933,
      "##ney": 1934,
      "civil": 1935,
      "board": 1936,
      "##lu": 1937,
      "pap": 1938,
      "site": 1939,
      "##color": 1940,
      "role": 1941,
      "songs": 1942,
      "fight": 1943,
      "give": 1944,
      "##used": 1945,
      "##ship": 1946,
      "described": 1947,
      "##go": 1948,
      "bed": 1949,
      "anim": 1950,
      "records": 1951,
      "pet": 1952,
      "total": 1953,
      "bgcolor": 1954,
      "region": 1955,
      "##to": 1956,
      "priv": 1957,
      "##emb": 1958,
      "produced": 1959,
      "created": 1960,
      "chair": 1961,
      "medal": 1962,
      "##ploy": 1963,
      "##ya": 1964,
      "##aughter": 1965,
      "bad": 1966,
      "worked": 1967,
      "returned": 1968,
      "los": 1969,
      "pan": 1970,
      "professional": 1971,
      "gun": 1972,
      "cop": 1973,
      "struct": 1974,
      "##ocr": 1975,
      "ber": 1976,
      "million": 1977,
      "##ze": 1978,
      "29": 1979,
      "comb": 1980,
      "soon": 1981,
      "police": 1982,
      "nothing": 1983,
      "india": 1984,
      "review": 1985,
      "##ened": 1986,
      "feder": 1987,
      "ham": 1988,
      "information": 1989,
      "various": 1990,
      "hap": 1991,
      "books": 1992,
      "france": 1993,
      "lib": 1994,
      "position": 1995,
      "franc": 1996,
      "host": 1997,
      "et": 1998,
      "text": 1999,
      "##ories": 2000,
      "australian": 2001,
      "places": 2002,
      "services": 2003,
      "defe": 2004,
      "enc": 2005,
      "##epend": 2006,
      "married": 2007,
      "almost": 2008,
      "ok": 2009,
      "awards": 2010,
      "grow": 2011,
      "science": 2012,
      "##ivid": 2013,
      "##iment": 2014,
      "claim": 2015,
      "battle": 2016,
      "news": 2017,
      "lear": 2018,
      "princ": 2019,
      "independ": 2020,
      "america": 2021,
      "committ": 2022,
      "lord": 2023,
      "wife": 2024,
      "working": 2025,
      "ver": 2026,
      "politic": 2027,
      "cell": 2028,
      "##li": 2029,
      "quick": 2030,
      "##ead": 2031,
      "introd": 2032,
      "2021": 2033,
      "european": 2034,
      "##omb": 2035,
      "begin": 2036,
      "similar": 2037,
      "##icip": 2038,
      "##ction": 2039,
      "31": 2040,
      "sus": 2041,
      "##ners": 2042,
      "offer": 2043,
      "important": 2044,
      "##ced": 2045,
      "able": 2046,
      "phot": 2047,
      "express": 2048,
      "close": 2049,
      "draw": 2050,
      "modern": 2051,
      "wasn": 2052,
      "students": 2053,
      "key": 2054,
      "railway": 2055,
      "1999": 2056,
      "##itar": 2057,
      "##ush": 2058,
      "relations": 2059,
      "##of": 2060,
      "announced": 2061,
      "##arch": 2062,
      "##iction": 2063,
      "##ips": 2064,
      "journal": 2065,
      "chief": 2066,
      "version": 2067,
      "##rican": 2068,
      "tv": 2069,
      "##cent": 2070,
      "perfor": 2071,
      "appoint": 2072,
      "##iding": 2073,
      "ident": 2074,
      "##anish": 2075,
      "debut": 2076,
      "clos": 2077,
      "individ": 2078,
      "canada": 2079,
      "##ready": 2080,
      "strong": 2081,
      "establish": 2082,
      "mary": 2083,
      "least": 2084,
      "##ena": 2085,
      "rob": 2086,
      "cho": 2087,
      "##ids": 2088,
      "kar": 2089,
      "events": 2090,
      "match": 2091,
      "ru": 2092,
      "tor": 2093,
      "already": 2094,
      "performan": 2095,
      "##ological": 2096,
      "sug": 2097,
      "##imin": 2098,
      "happen": 2099,
      "fig": 2100,
      "##ox": 2101,
      "northern": 2102,
      "flor": 2103,
      "caus": 2104,
      "alex": 2105,
      "185": 2106,
      "commission": 2107,
      "administr": 2108,
      "##aves": 2109,
      "angel": 2110,
      "##olution": 2111,
      "proble": 2112,
      "yes": 2113,
      "hen": 2114,
      "##cer": 2115,
      "bank": 2116,
      "##utes": 2117,
      "attempt": 2118,
      "earth": 2119,
      "##oul": 2120,
      "##ption": 2121,
      "##ump": 2122,
      "##here": 2123,
      "##amb": 2124,
      "looking": 2125,
      "du": 2126,
      "thing": 2127,
      "scr": 2128,
      "##ago": 2129,
      "anything": 2130,
      "chin": 2131,
      "canadian": 2132,
      "blue": 2133,
      "impr": 2134,
      "kh": 2135,
      "jew": 2136,
      "popular": 2137,
      "joined": 2138,
      "spir": 2139,
      "##reek": 2140,
      "kind": 2141,
      "liter": 2142,
      "50": 2143,
      "minister": 2144,
      "##ca": 2145,
      "sem": 2146,
      "##cher": 2147,
      "##cast": 2148,
      "pain": 2149,
      "kingdom": 2150,
      "blood": 2151,
      "aw": 2152,
      "fund": 2153,
      "##ators": 2154,
      "##iled": 2155,
      "##xim": 2156,
      "cost": 2157,
      "hit": 2158,
      "##iff": 2159,
      "nec": 2160,
      "##hib": 2161,
      "fest": 2162,
      "ps": 2163,
      "boy": 2164,
      "doc": 2165,
      "##ense": 2166,
      "inside": 2167,
      "##bor": 2168,
      "food": 2169,
      "prem": 2170,
      "taken": 2171,
      "hur": 2172,
      "##imes": 2173,
      "course": 2174,
      "fif": 2175,
      "race": 2176,
      "clear": 2177,
      "background": 2178,
      "relig": 2179,
      "dut": 2180,
      "webs": 2181,
      "1998": 2182,
      "mac": 2183,
      "personal": 2184,
      "hous": 2185,
      "ball": 2186,
      "product": 2187,
      "assist": 2188,
      "##bed": 2189,
      "##18": 2190,
      "wrote": 2191,
      "##erc": 2192,
      "jose": 2193,
      "exist": 2194,
      "##aft": 2195,
      "hosp": 2196,
      "change": 2197,
      "voc": 2198,
      "corn": 2199,
      "obs": 2200,
      "fail": 2201,
      "##ania": 2202,
      "appeared": 2203,
      "dead": 2204,
      "##ele": 2205,
      "wat": 2206,
      "##ample": 2207,
      "eight": 2208,
      "cut": 2209,
      "rac": 2210,
      "##cover": 2211,
      "southern": 2212,
      "##idence": 2213,
      "##uce": 2214,
      "fort": 2215,
      "today": 2216,
      "appl": 2217,
      "stay": 2218,
      "done": 2219,
      "##ville": 2220,
      "brown": 2221,
      "pul": 2222,
      "yet": 2223,
      "##ki": 2224,
      "sex": 2225,
      "mel": 2226,
      "unc": 2227,
      "middle": 2228,
      "##olic": 2229,
      "##iers": 2230,
      "hu": 2231,
      "##raft": 2232,
      "mex": 2233,
      "##iec": 2234,
      "coach": 2235,
      "recogn": 2236,
      "##ket": 2237,
      "##aged": 2238,
      "desp": 2239,
      "table": 2240,
      "esp": 2241,
      "pay": 2242,
      "moment": 2243,
      "20th": 2244,
      "pot": 2245,
      "##gy": 2246,
      "municip": 2247,
      "democr": 2248,
      "##uation": 2249,
      "##head": 2250,
      "particip": 2251,
      "followed": 2252,
      "words": 2253,
      "foc": 2254,
      "gar": 2255,
      "##ili": 2256,
      "playing": 2257,
      "deep": 2258,
      "germany": 2259,
      "michael": 2260,
      "##itive": 2261,
      "##oming": 2262,
      "teams": 2263,
      "1996": 2264,
      "bay": 2265,
      "produc": 2266,
      "##sequ": 2267,
      "release": 2268,
      "either": 2269,
      "data": 2270,
      "##itect": 2271,
      "media": 2272,
      "sir": 2273,
      "particular": 2274,
      "mic": 2275,
      "fut": 2276,
      "outside": 2277,
      "instead": 2278,
      "sle": 2279,
      "##mon": 2280,
      "lake": 2281,
      "tar": 2282,
      "break": 2283,
      "towards": 2284,
      "aver": 2285,
      "architect": 2286,
      "scott": 2287,
      "##hod": 2288,
      "mater": 2289,
      "rul": 2290,
      "albums": 2291,
      "saint": 2292,
      "1997": 2293,
      "ho": 2294,
      "##airs": 2295,
      "thomas": 2296,
      "##uth": 2297,
      "aud": 2298,
      "considered": 2299,
      "##itz": 2300,
      "ath": 2301,
      "mix": 2302,
      "##ida": 2303,
      "constit": 2304,
      "stage": 2305,
      "##burg": 2306,
      "washing": 2307,
      "japanese": 2308,
      "buildings": 2309,
      "##mar": 2310,
      "##ishing": 2311,
      "##ength": 2312,
      "treat": 2313,
      "word": 2314,
      "##icle": 2315,
      "viol": 2316,
      "seven": 2317,
      "km": 2318,
      "prob": 2319,
      "website": 2320,
      "instr": 2321,
      "sports": 2322,
      "agre": 2323,
      "reached": 2324,
      "writ": 2325,
      "china": 2326,
      "sea": 2327,
      "40": 2328,
      "daughter": 2329,
      "bit": 2330,
      "schools": 2331,
      "above": 2332,
      "hear": 2333,
      "##wood": 2334,
      "money": 2335,
      "##ij": 2336,
      "env": 2337,
      "##etting": 2338,
      "soft": 2339,
      "promot": 2340,
      "reb": 2341,
      "founded": 2342,
      "italian": 2343,
      "taking": 2344,
      "cath": 2345,
      "compos": 2346,
      "influ": 2347,
      "mont": 2348,
      "artist": 2349,
      "tradition": 2350,
      "fore": 2351,
      "coast": 2352,
      "notes": 2353,
      "hom": 2354,
      "mas": 2355,
      "understand": 2356,
      "points": 2357,
      "##igr": 2358,
      "##iving": 2359,
      "christian": 2360,
      "sand": 2361,
      "elected": 2362,
      "color": 2363,
      "birth": 2364,
      "results": 2365,
      "##oon": 2366,
      "paint": 2367,
      "ol": 2368,
      "shar": 2369,
      "magaz": 2370,
      "ben": 2371,
      "pun": 2372,
      "pen": 2373,
      "##urs": 2374,
      "scre": 2375,
      "parl": 2376,
      "market": 2377,
      "doct": 2378,
      "184": 2379,
      "african": 2380,
      "##ification": 2381,
      "van": 2382,
      "cand": 2383,
      "someone": 2384,
      "deg": 2385,
      "##hem": 2386,
      "frank": 2387,
      "earl": 2388,
      "tax": 2389,
      "1995": 2390,
      "deal": 2391,
      "transport": 2392,
      "##reg": 2393,
      "leave": 2394,
      "washington": 2395,
      "type": 2396,
      "self": 2397,
      "heard": 2398,
      "entire": 2399,
      "republic": 2400,
      "finally": 2401,
      "ul": 2402,
      "##ari": 2403,
      "##ergy": 2404,
      "pick": 2405,
      "answ": 2406,
      "charles": 2407,
      "recorded": 2408,
      "forces": 2409,
      "russian": 2410,
      "areas": 2411,
      "theat": 2412,
      "##ference": 2413,
      "everything": 2414,
      "esc": 2415,
      "female": 2416,
      "ach": 2417,
      "alumn": 2418,
      "killed": 2419,
      "##ements": 2420,
      "libr": 2421,
      "1994": 2422,
      "##ucted": 2423,
      "chart": 2424,
      "bow": 2425,
      "box": 2426,
      "##ny": 2427,
      "1992": 2428,
      "groups": 2429,
      "adm": 2430,
      "##ex": 2431,
      "lik": 2432,
      "basket": 2433,
      "arts": 2434,
      "master": 2435,
      "anal": 2436,
      "novel": 2437,
      "bul": 2438,
      "hop": 2439,
      "avail": 2440,
      "current": 2441,
      "gall": 2442,
      "employ": 2443,
      "ha": 2444,
      "tou": 2445,
      "peter": 2446,
      "##ude": 2447,
      "##ift": 2448,
      "hair": 2449,
      "historic": 2450,
      "example": 2451,
      "term": 2452,
      "hun": 2453,
      "training": 2454,
      "months": 2455,
      "fle": 2456,
      "institute": 2457,
      "comput": 2458,
      "qual": 2459,
      "tourn": 2460,
      "dig": 2461,
      "footballers": 2462,
      "slow": 2463,
      "##aught": 2464,
      "guitar": 2465,
      "athlet": 2466,
      "##ique": 2467,
      "laun": 2468,
      "centre": 2469,
      "alumni": 2470,
      "directed": 2471,
      "couldn": 2472,
      "##ano": 2473,
      "##overs": 2474,
      "##my": 2475,
      "kr": 2476,
      "bud": 2477,
      "execut": 2478,
      "hospital": 2479,
      "study": 2480,
      "brought": 2481,
      "lot": 2482,
      "wil": 2483,
      "interv": 2484,
      "anc": 2485,
      "parliam": 2486,
      "lower": 2487,
      "rather": 2488,
      "##nes": 2489,
      "access": 2490,
      "##hold": 2491,
      "##ume": 2492,
      "move": 2493,
      "discover": 2494,
      "##berg": 2495,
      "bab": 2496,
      "forest": 2497,
      "academy": 2498,
      "##aign": 2499,
      "hers": 2500,
      "##gress": 2501,
      "##itch": 2502,
      "finished": 2503,
      "certain": 2504,
      "separ": 2505,
      "watch": 2506,
      "op": 2507,
      "##isc": 2508,
      "eastern": 2509,
      "##band": 2510,
      "louis": 2511,
      "wid": 2512,
      "accept": 2513,
      "morn": 2514,
      "parliament": 2515,
      "##read": 2516,
      "action": 2517,
      "##gar": 2518,
      "despite": 2519,
      "formed": 2520,
      "##fully": 2521,
      "card": 2522,
      "decided": 2523,
      "says": 2524,
      "##ination": 2525,
      "completed": 2526,
      "quar": 2527,
      "developed": 2528,
      "##ract": 2529,
      "##uit": 2530,
      "tex": 2531,
      "happ": 2532,
      "##ication": 2533,
      "##ala": 2534,
      "else": 2535,
      "colon": 2536,
      "1993": 2537,
      "##iple": 2538,
      "##iron": 2539,
      "sym": 2540,
      "##isl": 2541,
      "chapter": 2542,
      "##ceed": 2543,
      "##asons": 2544,
      "mess": 2545,
      "die": 2546,
      "contract": 2547,
      "signed": 2548,
      "##aker": 2549,
      "trying": 2550,
      "rights": 2551,
      "floor": 2552,
      "episode": 2553,
      "wild": 2554,
      "chinese": 2555,
      "coming": 2556,
      "companies": 2557,
      "##tered": 2558,
      "doing": 2559,
      "appointed": 2560,
      "model": 2561,
      "private": 2562,
      "province": 2563,
      "fav": 2564,
      "##nel": 2565,
      "##acher": 2566,
      "##rica": 2567,
      "closed": 2568,
      "campaign": 2569,
      "##anced": 2570,
      "##medi": 2571,
      "construction": 2572,
      "hung": 2573,
      "##ban": 2574,
      "material": 2575,
      "friends": 2576,
      "ye": 2577,
      "suggest": 2578,
      "lay": 2579,
      "##ential": 2580,
      "wond": 2581,
      "natural": 2582,
      "lu": 2583,
      "##ensive": 2584,
      "##ke": 2585,
      "sud": 2586,
      "##anch": 2587,
      "mir": 2588,
      "##erson": 2589,
      "cit": 2590,
      "virgin": 2591,
      "victor": 2592,
      "##ending": 2593,
      "imm": 2594,
      "##craft": 2595,
      "propert": 2596,
      "committee": 2597,
      "##ga": 2598,
      "tried": 2599,
      "regular": 2600,
      "1990": 2601,
      "##over": 2602,
      "route": 2603,
      "##ises": 2604,
      "remember": 2605,
      "plant": 2606,
      "performance": 2607,
      "eventually": 2608,
      "possible": 2609,
      "basketball": 2610,
      "roll": 2611,
      "medical": 2612,
      "spirit": 2613,
      "richard": 2614,
      "walk": 2615,
      "gard": 2616,
      "vot": 2617,
      "arms": 2618,
      "##olf": 2619,
      "stood": 2620,
      "festival": 2621,
      "##fl": 2622,
      "staff": 2623,
      "available": 2624,
      "penn": 2625,
      "reported": 2626,
      "1991": 2627,
      "scient": 2628,
      "polic": 2629,
      "minutes": 2630,
      "morning": 2631,
      "studies": 2632,
      "##off": 2633,
      "norm": 2634,
      "originally": 2635,
      "feet": 2636,
      "method": 2637,
      "##apt": 2638,
      "future": 2639,
      "os": 2640,
      "##selv": 2641,
      "##aching": 2642,
      "shot": 2643,
      "neg": 2644,
      "network": 2645,
      "##selves": 2646,
      "paris": 2647,
      "##itting": 2648,
      "hus": 2649,
      "emp": 2650,
      "running": 2651,
      "sar": 2652,
      "##gn": 2653,
      "##uf": 2654,
      "carol": 2655,
      "environ": 2656,
      "##ston": 2657,
      "believe": 2658,
      "reason": 2659,
      "clim": 2660,
      "throughout": 2661,
      "transl": 2662,
      "squad": 2663,
      "183": 2664,
      "gradu": 2665,
      "jer": 2666,
      "##ees": 2667,
      "question": 2668,
      "##omm": 2669,
      "##enth": 2670,
      "cens": 2671,
      "##ona": 2672,
      "bring": 2673,
      "swe": 2674,
      "added": 2675,
      "##rael": 2676,
      "liber": 2677,
      "henry": 2678,
      "energy": 2679,
      "spanish": 2680,
      "##ych": 2681,
      "drop": 2682,
      "##ula": 2683,
      "##ck": 2684,
      "mos": 2685,
      "abs": 2686,
      "ca": 2687,
      "##ability": 2688,
      "olympics": 2689,
      "respons": 2690,
      "guard": 2691,
      "##icated": 2692,
      "quickly": 2693,
      "##ta": 2694,
      "##ander": 2695,
      "##urity": 2696,
      "needed": 2697,
      "##ota": 2698,
      "assemb": 2699,
      "ven": 2700,
      "register": 2701,
      "fly": 2702,
      "officer": 2703,
      "goal": 2704,
      "inn": 2705,
      "africa": 2706,
      "##lo": 2707,
      "reserv": 2708,
      "##ym": 2709,
      "chann": 2710,
      "bor": 2711,
      "##icles": 2712,
      "acqu": 2713,
      "professor": 2714,
      "section": 2715,
      "##ita": 2716,
      "deter": 2717,
      "ce": 2718,
      "##omp": 2719,
      "##ba": 2720,
      "##wr": 2721,
      "average": 2722,
      "##aries": 2723,
      "##bc": 2724,
      "##ii": 2725,
      "lie": 2726,
      "##atory": 2727,
      "usually": 2728,
      "maybe": 2729,
      "fair": 2730,
      "sor": 2731,
      "ox": 2732,
      "placed": 2733,
      "smith": 2734,
      "remained": 2735,
      "##ateg": 2736,
      "##erous": 2737,
      "insp": 2738,
      "loss": 2739,
      "technology": 2740,
      "range": 2741,
      "whole": 2742,
      "eth": 2743,
      "culture": 2744,
      "israel": 2745,
      "##ases": 2746,
      "1989": 2747,
      "artists": 2748,
      "##elled": 2749,
      "##dr": 2750,
      "sometimes": 2751,
      "federal": 2752,
      "rh": 2753,
      "idea": 2754,
      "##odes": 2755,
      "##men": 2756,
      "1988": 2757,
      "plann": 2758,
      "bat": 2759,
      "##ams": 2760,
      "movement": 2761,
      "jes": 2762,
      "subject": 2763,
      "seemed": 2764,
      "##enty": 2765,
      "##ella": 2766,
      "##roy": 2767,
      "##ilities": 2768,
      "hours": 2769,
      "object": 2770,
      "##fic": 2771,
      "##osh": 2772,
      "fear": 2773,
      "ord": 2774,
      "catholic": 2775,
      "aircraft": 2776,
      "captain": 2777,
      "##ugg": 2778,
      "##ipped": 2779,
      "zeal": 2780,
      "tournament": 2781,
      "##agon": 2782,
      "##uff": 2783,
      "except": 2784,
      "##edy": 2785,
      "true": 2786,
      "##ura": 2787,
      "pict": 2788,
      "##atives": 2789,
      "und": 2790,
      "texas": 2791,
      "leading": 2792,
      "decl": 2793,
      "respect": 2794,
      "travel": 2795,
      "##hood": 2796,
      "seat": 2797,
      "hell": 2798,
      "##enced": 2799,
      "reading": 2800,
      "##ded": 2801,
      "##wor": 2802,
      "talk": 2803,
      "plat": 2804,
      "kore": 2805,
      "piec": 2806,
      "trust": 2807,
      "##fect": 2808,
      "leaders": 2809,
      "##elling": 2810,
      "log": 2811,
      "probably": 2812,
      "bord": 2813,
      "##ja": 2814,
      "means": 2815,
      "mission": 2816,
      "##10": 2817,
      "features": 2818,
      "##icket": 2819,
      "achiev": 2820,
      "bridge": 2821,
      "francis": 2822,
      "capital": 2823,
      "##ector": 2824,
      "mach": 2825,
      "##itted": 2826,
      "##ulated": 2827,
      "championships": 2828,
      "stone": 2829,
      "inj": 2830,
      "conference": 2831,
      "maint": 2832,
      "ire": 2833,
      "beaut": 2834,
      "35": 2835,
      "burn": 2836,
      "iv": 2837,
      "sant": 2838,
      "account": 2839,
      "cann": 2840,
      "observ": 2841,
      "forward": 2842,
      "magazine": 2843,
      "speed": 2844,
      "##asing": 2845,
      "leader": 2846,
      "dream": 2847,
      "library": 2848,
      "thus": 2849,
      "##row": 2850,
      "##ificant": 2851,
      "environment": 2852,
      "tow": 2853,
      "getting": 2854,
      "##de": 2855,
      "writing": 2856,
      "relationship": 2857,
      "dar": 2858,
      "conserv": 2859,
      "nod": 2860,
      "zealand": 2861,
      "##iation": 2862,
      "performed": 2863,
      "beginning": 2864,
      "##ada": 2865,
      "##ien": 2866,
      "fourth": 2867,
      "designed": 2868,
      "fill": 2869,
      "dom": 2870,
      "trib": 2871,
      "##ested": 2872,
      "involved": 2873,
      "month": 2874,
      "fer": 2875,
      "##fort": 2876,
      "ban": 2877,
      "independent": 2878,
      "row": 2879,
      "gh": 2880,
      "baseball": 2881,
      "management": 2882,
      "shows": 2883,
      "foreign": 2884,
      "sister": 2885,
      "cab": 2886,
      "##za": 2887,
      "chic": 2888,
      "##ffer": 2889,
      "neigh": 2890,
      "ireland": 2891,
      "stations": 2892,
      "currently": 2893,
      "##play": 2894,
      "##istry": 2895,
      "mountain": 2896,
      "prior": 2897,
      "##ini": 2898,
      "prison": 2899,
      "related": 2900,
      "chall": 2901,
      "espec": 2902,
      "significant": 2903,
      "1987": 2904,
      "anti": 2905,
      "bish": 2906,
      "governor": 2907,
      "##apped": 2908,
      "bene": 2909,
      "##uke": 2910,
      "##essed": 2911,
      "meas": 2912,
      "peak": 2913,
      "##eks": 2914,
      "senior": 2915,
      "security": 2916,
      "census": 2917,
      "##ette": 2918,
      "immedi": 2919,
      "investig": 2920,
      "luc": 2921,
      "poet": 2922,
      "legisl": 2923,
      "##ado": 2924,
      "swed": 2925,
      "broadcast": 2926,
      "gal": 2927,
      "longer": 2928,
      "lif": 2929,
      "##oviet": 2930,
      "especially": 2931,
      "silver": 2932,
      "musical": 2933,
      "sav": 2934,
      "surf": 2935,
      "wide": 2936,
      "path": 2937,
      "eye": 2938,
      "beg": 2939,
      "##ights": 2940,
      "competition": 2941,
      "effort": 2942,
      "connect": 2943,
      "##ades": 2944,
      "coun": 2945,
      "brand": 2946,
      "systems": 2947,
      "1986": 2948,
      "passed": 2949,
      "##lam": 2950,
      "walked": 2951,
      "herself": 2952,
      "##ping": 2953,
      "matt": 2954,
      "changed": 2955,
      "##aches": 2956,
      "##era": 2957,
      "exam": 2958,
      "size": 2959,
      "##ores": 2960,
      "document": 2961,
      "jim": 2962,
      "theatre": 2963,
      "stev": 2964,
      "##ray": 2965,
      "ov": 2966,
      "singles": 2967,
      "##9e": 2968,
      "includes": 2969,
      "##lands": 2970,
      "##istan": 2971,
      "mouth": 2972,
      "congress": 2973,
      "##ications": 2974,
      "pac": 2975,
      "tun": 2976,
      "itself": 2977,
      "toward": 2978,
      "1984": 2979,
      "##ining": 2980,
      "pil": 2981,
      "singer": 2982,
      "collection": 2983,
      "subsequ": 2984,
      "##kn": 2985,
      "studio": 2986,
      "##17": 2987,
      "famil": 2988,
      "below": 2989,
      "writers": 2990,
      "pred": 2991,
      "##back": 2992,
      "od": 2993,
      "primary": 2994,
      "susp": 2995,
      "actress": 2996,
      "alone": 2997,
      "try": 2998,
      "lived": 2999,
      "grant": 3000,
      "writer": 3001,
      "ice": 3002,
      "rap": 3003,
      "countries": 3004,
      "exhib": 3005,
      "heavy": 3006,
      "##oken": 3007,
      "hope": 3008,
      "ros": 3009,
      "regard": 3010,
      "##ites": 3011,
      "##aur": 3012,
      "saying": 3013,
      "largest": 3014,
      "edition": 3015,
      "higher": 3016,
      "##idents": 3017,
      "everyone": 3018,
      "peace": 3019,
      "cred": 3020,
      "##la": 3021,
      "turk": 3022,
      "##ios": 3023,
      "1985": 3024,
      "psych": 3025,
      "valley": 3026,
      "##22": 3027,
      "##ein": 3028,
      "organization": 3029,
      "fing": 3030,
      "glob": 3031,
      "1st": 3032,
      "screen": 3033,
      "soviet": 3034,
      "##ples": 3035,
      "gas": 3036,
      "consist": 3037,
      "parents": 3038,
      "candid": 3039,
      "45": 3040,
      "##riate": 3041,
      "actually": 3042,
      "pulled": 3043,
      "##reat": 3044,
      "##ola": 3045,
      "##han": 3046,
      "queen": 3047,
      "1980": 3048,
      "##room": 3049,
      "listed": 3050,
      "jul": 3051,
      "narr": 3052,
      "##ole": 3053,
      "##well": 3054,
      "nomin": 3055,
      "doctor": 3056,
      "rug": 3057,
      "sens": 3058,
      "georg": 3059,
      "date": 3060,
      "transfer": 3061,
      "navy": 3062,
      "##oma": 3063,
      "##ients": 3064,
      "amb": 3065,
      "##round": 3066,
      "politician": 3067,
      "##use": 3068,
      "##yan": 3069,
      "corpor": 3070,
      "whose": 3071,
      "dog": 3072,
      "stated": 3073,
      "job": 3074,
      "standard": 3075,
      "minor": 3076,
      "olympic": 3077,
      "families": 3078,
      "occur": 3079,
      "speak": 3080,
      "breath": 3081,
      "trade": 3082,
      "purp": 3083,
      "occup": 3084,
      "pack": 3085,
      "##iced": 3086,
      "degree": 3087,
      "##tain": 3088,
      "braz": 3089,
      "individual": 3090,
      "matter": 3091,
      "##het": 3092,
      "train": 3093,
      "sort": 3094,
      "##ockey": 3095,
      "oppos": 3096,
      "winning": 3097,
      "kept": 3098,
      "spent": 3099,
      "nature": 3100,
      "32": 3101,
      "value": 3102,
      "honor": 3103,
      "domin": 3104,
      "introduced": 3105,
      "##iences": 3106,
      "airport": 3107,
      "##usion": 3108,
      "atl": 3109,
      "commerc": 3110,
      "jesus": 3111,
      "destroy": 3112,
      "assembly": 3113,
      "##tr": 3114,
      "##16": 3115,
      "leaving": 3116,
      "chicago": 3117,
      "stra": 3118,
      "mexico": 3119,
      "1983": 3120,
      "allowed": 3121,
      "critic": 3122,
      "missing": 3123,
      "complete": 3124,
      "husband": 3125,
      "##ris": 3126,
      "##ushed": 3127,
      "themselves": 3128,
      "replaced": 3129,
      "featured": 3130,
      "schol": 3131,
      "##tim": 3132,
      "awarded": 3133,
      "bott": 3134,
      "surround": 3135,
      "industry": 3136,
      "##ales": 3137,
      "parts": 3138,
      "tenn": 3139,
      "via": 3140,
      "pu": 3141,
      "flow": 3142,
      "financ": 3143,
      "martin": 3144,
      "provided": 3145,
      "diffic": 3146,
      "cust": 3147,
      "focus": 3148,
      "##igned": 3149,
      "doub": 3150,
      "virginia": 3151,
      "il": 3152,
      "##oun": 3153,
      "sleep": 3154,
      "raised": 3155,
      "spring": 3156,
      "joseph": 3157,
      "##15": 3158,
      "actor": 3159,
      "difficult": 3160,
      "murder": 3161,
      "##oo": 3162,
      "##istic": 3163,
      "unit": 3164,
      "##ests": 3165,
      "##igan": 3166,
      "note": 3167,
      "ful": 3168,
      "bes": 3169,
      "##arily": 3170,
      "teacher": 3171,
      "1982": 3172,
      "drum": 3173,
      "block": 3174,
      "decision": 3175,
      "##12": 3176,
      "##rd": 3177,
      "##chen": 3178,
      "fine": 3179,
      "girls": 3180,
      "apart": 3181,
      "household": 3182,
      "##ails": 3183,
      "##idae": 3184,
      "complex": 3185,
      "##action": 3186,
      "tro": 3187,
      "rose": 3188,
      "makes": 3189,
      "beat": 3190,
      "veh": 3191,
      "economic": 3192,
      "elev": 3193,
      "ess": 3194,
      "##rect": 3195,
      "##bb": 3196,
      "wing": 3197,
      "historical": 3198,
      "ask": 3199,
      "hund": 3200,
      "##iana": 3201,
      "meeting": 3202,
      "##hest": 3203,
      "cele": 3204,
      "##cy": 3205,
      "##fr": 3206,
      "touch": 3207,
      "glass": 3208,
      "regional": 3209,
      "paper": 3210,
      "00": 3211,
      "earlier": 3212,
      "##istics": 3213,
      "concern": 3214,
      "manager": 3215,
      "lives": 3216,
      "##olk": 3217,
      "shoot": 3218,
      "italy": 3219,
      "empire": 3220,
      "ba": 3221,
      "previously": 3222,
      "##board": 3223,
      "##antic": 3224,
      "1979": 3225,
      "##where": 3226,
      "##ibility": 3227,
      "##ledge": 3228,
      "##ession": 3229,
      "irish": 3230,
      "##zz": 3231,
      "fast": 3232,
      "gone": 3233,
      "brazil": 3234,
      "characters": 3235,
      "chem": 3236,
      "scot": 3237,
      "provide": 3238,
      "33": 3239,
      "entered": 3240,
      "surpr": 3241,
      "arab": 3242,
      "bell": 3243,
      "##abor": 3244,
      "##ols": 3245,
      "quarter": 3246,
      "student": 3247,
      "youth": 3248,
      "##ophy": 3249,
      "happened": 3250,
      "36": 3251,
      "greek": 3252,
      "##har": 3253,
      "hundred": 3254,
      "opening": 3255,
      "farm": 3256,
      "##isk": 3257,
      "operations": 3258,
      "ended": 3259,
      "##ects": 3260,
      "onto": 3261,
      "suffer": 3262,
      "notable": 3263,
      "wear": 3264,
      "##pper": 3265,
      "experience": 3266,
      "discuss": 3267,
      "celebr": 3268,
      "##ening": 3269,
      "vocals": 3270,
      "shr": 3271,
      "cold": 3272,
      "purch": 3273,
      "##ension": 3274,
      "prince": 3275,
      "carl": 3276,
      "##rain": 3277,
      "units": 3278,
      "##ims": 3279,
      "native": 3280,
      "##riage": 3281,
      "patr": 3282,
      "##iant": 3283,
      "myself": 3284,
      "channel": 3285,
      "organiz": 3286,
      "les": 3287,
      "attention": 3288,
      "ash": 3289,
      "60": 3290,
      "haw": 3291,
      "##oid": 3292,
      "##sc": 3293,
      "length": 3294,
      "mention": 3295,
      "foundation": 3296,
      "winter": 3297,
      "##ibution": 3298,
      "cd": 3299,
      "lady": 3300,
      "##dy": 3301,
      "computer": 3302,
      "limited": 3303,
      "##lement": 3304,
      "1972": 3305,
      "contribut": 3306,
      "producer": 3307,
      "rid": 3308,
      "##anda": 3309,
      "page": 3310,
      "whom": 3311,
      "stopped": 3312,
      "21st": 3313,
      "19th": 3314,
      "names": 3315,
      "##iption": 3316,
      "emerg": 3317,
      "reveal": 3318,
      "smile": 3319,
      "##oe": 3320,
      "##ging": 3321,
      "sudden": 3322,
      "##ware": 3323,
      "operation": 3324,
      "frequ": 3325,
      "##abit": 3326,
      "##asc": 3327,
      "##iously": 3328,
      "ray": 3329,
      "structure": 3330,
      "##ufact": 3331,
      "##oring": 3332,
      "drama": 3333,
      "mut": 3334,
      "lack": 3335,
      "##porary": 3336,
      "manufact": 3337,
      "1976": 3338,
      "secretary": 3339,
      "##ify": 3340,
      "newsp": 3341,
      "princip": 3342,
      "ens": 3343,
      "active": 3344,
      "##west": 3345,
      "problem": 3346,
      "source": 3347,
      "newspap": 3348,
      "bass": 3349,
      "##ental": 3350,
      "sense": 3351,
      "disp": 3352,
      "commercial": 3353,
      "##oles": 3354,
      "ut": 3355,
      "stad": 3356,
      "additional": 3357,
      "selected": 3358,
      "ta": 3359,
      "##iano": 3360,
      "interview": 3361,
      "dance": 3362,
      "##ua": 3363,
      "approxim": 3364,
      "florida": 3365,
      "hockey": 3366,
      "1981": 3367,
      "##inct": 3368,
      "##14": 3369,
      "rain": 3370,
      "nine": 3371,
      "1978": 3372,
      "sources": 3373,
      "fc": 3374,
      "scored": 3375,
      "soul": 3376,
      "owned": 3377,
      "ly": 3378,
      "##iling": 3379,
      "bag": 3380,
      "emb": 3381,
      "square": 3382,
      "truth": 3383,
      "practice": 3384,
      "standing": 3385,
      "##cle": 3386,
      "##unt": 3387,
      "##isher": 3388,
      "takes": 3389,
      "moving": 3390,
      "lines": 3391,
      "columb": 3392,
      "##13": 3393,
      "shall": 3394,
      "twenty": 3395,
      "poor": 3396,
      "tas": 3397,
      "cer": 3398,
      "saf": 3399,
      "weap": 3400,
      "pret": 3401,
      "##onse": 3402,
      "weeks": 3403,
      "500": 3404,
      "##ustr": 3405,
      "anyone": 3406,
      "1974": 3407,
      "##hi": 3408,
      "ram": 3409,
      "rugby": 3410,
      "imag": 3411,
      "rang": 3412,
      "location": 3413,
      "legal": 3414,
      "##ylv": 3415,
      "##rian": 3416,
      "dun": 3417,
      "##onstr": 3418,
      "simp": 3419,
      "##eg": 3420,
      "##ias": 3421,
      "angeles": 3422,
      "religious": 3423,
      "rank": 3424,
      "jac": 3425,
      "1975": 3426,
      "da": 3427,
      "nation": 3428,
      "ancient": 3429,
      "1968": 3430,
      "ah": 3431,
      "##ule": 3432,
      "##ror": 3433,
      "quite": 3434,
      "visit": 3435,
      "doesn": 3436,
      "##ria": 3437,
      "##ipl": 3438,
      "philos": 3439,
      "labor": 3440,
      "opt": 3441,
      "1970": 3442,
      "editor": 3443,
      "mech": 3444,
      "democratic": 3445,
      "##uments": 3446,
      "executive": 3447,
      "##lor": 3448,
      "altern": 3449,
      "1977": 3450,
      "consider": 3451,
      "##ously": 3452,
      "older": 3453,
      "##ective": 3454,
      "pow": 3455,
      "bey": 3456,
      "bound": 3457,
      "##oud": 3458,
      "premier": 3459,
      "russia": 3460,
      "starting": 3461,
      "couple": 3462,
      "tree": 3463,
      "##ocks": 3464,
      "cultural": 3465,
      "cry": 3466,
      "bob": 3467,
      "plays": 3468,
      "kiss": 3469,
      "##reme": 3470,
      "spr": 3471,
      "compl": 3472,
      "##oper": 3473,
      "##azz": 3474,
      "feeling": 3475,
      "concept": 3476,
      "##asion": 3477,
      "34": 3478,
      "traditional": 3479,
      "property": 3480,
      "ready": 3481,
      "##iger": 3482,
      "##tar": 3483,
      "whether": 3484,
      "successful": 3485,
      "##ylvania": 3486,
      "##oat": 3487,
      "ships": 3488,
      "dani": 3489,
      "nick": 3490,
      "justice": 3491,
      "##leg": 3492,
      "unl": 3493,
      "##ero": 3494,
      "smiled": 3495,
      "spl": 3496,
      "issue": 3497,
      "lee": 3498,
      "rub": 3499,
      "sac": 3500,
      "response": 3501,
      "1973": 3502,
      "wales": 3503,
      "ak": 3504,
      "mah": 3505,
      "covered": 3506,
      "theory": 3507,
      "bac": 3508,
      "islands": 3509,
      "##omes": 3510,
      "##ve": 3511,
      "appr": 3512,
      "electric": 3513,
      "nearly": 3514,
      "carry": 3515,
      "cases": 3516,
      "seasons": 3517,
      "##ils": 3518,
      "drive": 3519,
      "##iful": 3520,
      "cause": 3521,
      "castle": 3522,
      "##ems": 3523,
      "expat": 3524,
      "##inn": 3525,
      "forced": 3526,
      "comes": 3527,
      "##ires": 3528,
      "cricket": 3529,
      "wrong": 3530,
      "memor": 3531,
      "establishments": 3532,
      "dyn": 3533,
      "anth": 3534,
      "goals": 3535,
      "web": 3536,
      "##oes": 3537,
      "##km": 3538,
      "attract": 3539,
      "##orpor": 3540,
      "issues": 3541,
      "##ours": 3542,
      "revolution": 3543,
      "brief": 3544,
      "immediately": 3545,
      "##arian": 3546,
      "stock": 3547,
      "charl": 3548,
      "##ati": 3549,
      "movie": 3550,
      "##50": 3551,
      "figure": 3552,
      "associated": 3553,
      "##och": 3554,
      "lock": 3555,
      "cham": 3556,
      "ton": 3557,
      "##ding": 3558,
      "jewish": 3559,
      "specific": 3560,
      "##inet": 3561,
      "##egr": 3562,
      "stories": 3563,
      "##d6": 3564,
      "engineering": 3565,
      "##ingu": 3566,
      "##eople": 3567,
      "houses": 3568,
      "runs": 3569,
      "bon": 3570,
      "carolina": 3571,
      "stars": 3572,
      "rural": 3573,
      "required": 3574,
      "penns": 3575,
      "az": 3576,
      "sched": 3577,
      "evidence": 3578,
      "##uals": 3579,
      "policy": 3580,
      "##itation": 3581,
      "concert": 3582,
      "wouldn": 3583,
      "disapp": 3584,
      "enj": 3585,
      "din": 3586,
      "crow": 3587,
      "defeated": 3588,
      "caused": 3589,
      "1969": 3590,
      "online": 3591,
      "##irt": 3592,
      "1971": 3593,
      "attended": 3594,
      "target": 3595,
      "##ques": 3596,
      "phone": 3597,
      "meaning": 3598,
      "##200": 3599,
      "skin": 3600,
      "threat": 3601,
      "180": 3602,
      "straight": 3603,
      "1945": 3604,
      "personnel": 3605,
      "contem": 3606,
      "search": 3607,
      "mis": 3608,
      "##ko": 3609,
      "##road": 3610,
      "drug": 3611,
      "prime": 3612,
      "2nd": 3613,
      "kit": 3614,
      "pennsylvania": 3615,
      "mechan": 3616,
      "highest": 3617,
      "elections": 3618,
      "bishop": 3619,
      "##rupt": 3620,
      "prize": 3621,
      "arrived": 3622,
      "double": 3623,
      "metal": 3624,
      "##iy": 3625,
      "distance": 3626,
      "##icted": 3627,
      "##wh": 3628,
      "dang": 3629,
      "direction": 3630,
      "financial": 3631,
      "##rial": 3632,
      "na": 3633,
      "##une": 3634,
      "changes": 3635,
      "sup": 3636,
      "demand": 3637,
      "administration": 3638,
      "bib": 3639,
      "giving": 3640,
      "ign": 3641,
      "philipp": 3642,
      "overall": 3643,
      "regiment": 3644,
      "convers": 3645,
      "fiction": 3646,
      "##oz": 3647,
      "##heast": 3648,
      "sad": 3649,
      "victory": 3650,
      "becoming": 3651,
      "dutch": 3652,
      "boys": 3653,
      "subst": 3654,
      "##mit": 3655,
      "1967": 3656,
      "crew": 3657,
      "annual": 3658,
      "slight": 3659,
      "rod": 3660,
      "custom": 3661,
      "##izing": 3662,
      "helped": 3663,
      "adj": 3664,
      "##aven": 3665,
      "citiz": 3666,
      "fal": 3667,
      "##teen": 3668,
      "##ef": 3669,
      "initially": 3670,
      "pull": 3671,
      "edward": 3672,
      "hotel": 3673,
      "brig": 3674,
      "mcc": 3675,
      "township": 3676,
      "temple": 3677,
      "##haps": 3678,
      "trial": 3679,
      "flight": 3680,
      "##gian": 3681,
      "guy": 3682,
      "##shire": 3683,
      "pak": 3684,
      "lic": 3685,
      "generally": 3686,
      "store": 3687,
      "thinking": 3688,
      "##more": 3689,
      "spain": 3690,
      "oil": 3691,
      "##iles": 3692,
      "cities": 3693,
      "1964": 3694,
      "##mond": 3695,
      "##isions": 3696,
      "yell": 3697,
      "kid": 3698,
      "activities": 3699,
      "therefore": 3700,
      "cannot": 3701,
      "perhaps": 3702,
      "mob": 3703,
      "stadium": 3704,
      "print": 3705,
      "municipality": 3706,
      "appearance": 3707,
      "approximately": 3708,
      "necess": 3709,
      "termin": 3710,
      "##iance": 3711,
      "multiple": 3712,
      "##ira": 3713,
      "##ker": 3714,
      "create": 3715,
      "surface": 3716,
      "arrang": 3717,
      "nations": 3718,
      "article": 3719,
      "iran": 3720,
      "##ousand": 3721,
      "survey": 3722,
      "##bridge": 3723,
      "ring": 3724,
      "##enge": 3725,
      "represented": 3726,
      "thousand": 3727,
      "asian": 3728,
      "stan": 3729,
      "grab": 3730,
      "bron": 3731,
      "horse": 3732,
      "marc": 3733,
      "send": 3734,
      "mostly": 3735,
      "nodded": 3736,
      "prec": 3737,
      "physical": 3738,
      "commander": 3739,
      "offered": 3740,
      "highway": 3741,
      "##inal": 3742,
      "assistant": 3743,
      "belong": 3744,
      "pit": 3745,
      "##iest": 3746,
      "dad": 3747,
      "launched": 3748,
      "bang": 3749,
      "meant": 3750,
      "upper": 3751,
      "##icks": 3752,
      "##hire": 3753,
      "okay": 3754,
      "reform": 3755,
      "sky": 3756,
      "junior": 3757,
      "facult": 3758,
      "38": 3759,
      "scottish": 3760,
      "matches": 3761,
      "44": 3762,
      "##11": 3763,
      "terms": 3764,
      "##ersey": 3765,
      "officers": 3766,
      "tracks": 3767,
      "managed": 3768,
      "champion": 3769,
      "faith": 3770,
      "iron": 3771,
      "wrest": 3772,
      "holding": 3773,
      "knowledge": 3774,
      "37": 3775,
      "oce": 3776,
      "agric": 3777,
      "##book": 3778,
      "score": 3779,
      "remain": 3780,
      "adop": 3781,
      "dise": 3782,
      "carried": 3783,
      "biography": 3784,
      "##wan": 3785,
      "footballer": 3786,
      "enjoy": 3787,
      "studied": 3788,
      "wait": 3789,
      "islam": 3790,
      "bod": 3791,
      "##itory": 3792,
      "beyond": 3793,
      "amount": 3794,
      "##ansas": 3795,
      "1965": 3796,
      "beach": 3797,
      "179": 3798,
      "##gl": 3799,
      "ded": 3800,
      "jon": 3801,
      "##rey": 3802,
      "cook": 3803,
      "1966": 3804,
      "suc": 3805,
      "ago": 3806,
      "magn": 3807,
      "noted": 3808,
      "comment": 3809,
      "letter": 3810,
      "albert": 3811,
      "digital": 3812,
      "1960": 3813,
      "tall": 3814,
      "##mark": 3815,
      "please": 3816,
      "##utions": 3817,
      "perfect": 3818,
      "exact": 3819,
      "##ador": 3820,
      "fish": 3821,
      "##aped": 3822,
      "pacific": 3823,
      "harv": 3824,
      "recording": 3825,
      "##enue": 3826,
      "65": 3827,
      "tam": 3828,
      "shut": 3829,
      "marriage": 3830,
      "freed": 3831,
      "agricult": 3832,
      "dan": 3833,
      "exch": 3834,
      "shop": 3835,
      "golden": 3836,
      "problems": 3837,
      "contact": 3838,
      "window": 3839,
      "iii": 3840,
      "slowly": 3841,
      "##eds": 3842,
      "##ider": 3843,
      "storm": 3844,
      "feature": 3845,
      "code": 3846,
      "##etic": 3847,
      "##yer": 3848,
      "##isters": 3849,
      "believed": 3850,
      "corps": 3851,
      "##ci": 3852,
      "gallery": 3853,
      "expatriate": 3854,
      "status": 3855,
      "increased": 3856,
      "##iga": 3857,
      "##bi": 3858,
      "motor": 3859,
      "rat": 3860,
      "enem": 3861,
      "platform": 3862,
      "sin": 3863,
      "autom": 3864,
      "##mm": 3865,
      "##itude": 3866,
      "1920": 3867,
      "spread": 3868,
      "##ugu": 3869,
      "categ": 3870,
      "pray": 3871,
      "medic": 3872,
      "corner": 3873,
      "sequ": 3874,
      "draft": 3875,
      "##ibly": 3876,
      "##light": 3877,
      "##enant": 3878,
      "max": 3879,
      "simply": 3880,
      "comedy": 3881,
      "diss": 3882,
      "fellow": 3883,
      "htt": 3884,
      "determ": 3885,
      "happy": 3886,
      "bomb": 3887,
      "##ux": 3888,
      "##ysis": 3889,
      "share": 3890,
      "completely": 3891,
      "bol": 3892,
      "likely": 3893,
      "beautiful": 3894,
      "cancer": 3895,
      "##ila": 3896,
      "dim": 3897,
      "uses": 3898,
      "resour": 3899,
      "reflect": 3900,
      "soldiers": 3901,
      "sab": 3902,
      "##gu": 3903,
      "reach": 3904,
      "##inary": 3905,
      "drink": 3906,
      "##ela": 3907,
      "numerous": 3908,
      "brothers": 3909,
      "##awa": 3910,
      "##body": 3911,
      "municipal": 3912,
      "progress": 3913,
      "genus": 3914,
      "holy": 3915,
      "##ogen": 3916,
      "percent": 3917,
      "mike": 3918,
      "##mas": 3919,
      "jersey": 3920,
      "quiet": 3921,
      "jones": 3922,
      "##ss": 3923,
      "function": 3924,
      "mayor": 3925,
      "dail": 3926,
      "##quar": 3927,
      "temper": 3928,
      "confir": 3929,
      "bost": 3930,
      "##wa": 3931,
      "indic": 3932,
      "gaz": 3933,
      "expand": 3934,
      "politicians": 3935,
      "trail": 3936,
      "particularly": 3937,
      "mine": 3938,
      "##iny": 3939,
      "clean": 3940,
      "##antly": 3941,
      "faculty": 3942,
      "address": 3943,
      "mand": 3944,
      "##aly": 3945,
      "majority": 3946,
      "remains": 3947,
      "counter": 3948,
      "global": 3949,
      "caught": 3950,
      "era": 3951,
      "##vert": 3952,
      "bear": 3953,
      "##bon": 3954,
      "chance": 3955,
      "ott": 3956,
      "##ros": 3957,
      "##eness": 3958,
      "cart": 3959,
      "miles": 3960,
      "programs": 3961,
      "ohio": 3962,
      "kent": 3963,
      "syn": 3964,
      "collabor": 3965,
      "greater": 3966,
      "cub": 3967,
      "contains": 3968,
      "##house": 3969,
      "plans": 3970,
      "literature": 3971,
      "judge": 3972,
      "edge": 3973,
      "michigan": 3974,
      "joe": 3975,
      "hind": 3976,
      "branch": 3977,
      "ic": 3978,
      "80": 3979,
      "border": 3980,
      "scotland": 3981,
      "failed": 3982,
      "continue": 3983,
      "passeng": 3984,
      "minute": 3985,
      "famous": 3986,
      "impact": 3987,
      "talking": 3988,
      "##nam": 3989,
      "##kin": 3990,
      "##abeth": 3991,
      "rog": 3992,
      "uns": 3993,
      "1963": 3994,
      "winner": 3995,
      "brook": 3996,
      "##any": 3997,
      "rate": 3998,
      "daniel": 3999,
      "##mann": 4000,
      "1962": 4001,
      "retired": 4002,
      "##ih": 4003,
      "jean": 4004,
      "1944": 4005,
      "chairman": 4006,
      "ww": 4007,
      "##gypt": 4008,
      "sher": 4009,
      "britain": 4010,
      "polish": 4011,
      "prep": 4012,
      "entertain": 4013,
      "lov": 4014,
      "##ault": 4015,
      "##rel": 4016,
      "##cend": 4017,
      "directly": 4018,
      "favor": 4019,
      "adult": 4020,
      "infant": 4021,
      "ministry": 4022,
      "weight": 4023,
      "resist": 4024,
      "eliz": 4025,
      "shown": 4026,
      "vice": 4027,
      "firm": 4028,
      "##bury": 4029,
      "behav": 4030,
      "income": 4031,
      "fifth": 4032,
      "answer": 4033,
      "egypt": 4034,
      "estim": 4035,
      "boston": 4036,
      "rand": 4037,
      "deput": 4038,
      "##ables": 4039,
      "volume": 4040,
      "workers": 4041,
      "opport": 4042,
      "##aka": 4043,
      "yellow": 4044,
      "##ellig": 4045,
      "entr": 4046,
      "argent": 4047,
      "strugg": 4048,
      "eld": 4049,
      "waiting": 4050,
      "ped": 4051,
      "andrew": 4052,
      "182": 4053,
      "scene": 4054,
      "anton": 4055,
      "recent": 4056,
      "##hew": 4057,
      "70": 4058,
      "tan": 4059,
      "larger": 4060,
      "las": 4061,
      "##illy": 4062,
      "pier": 4063,
      "opportun": 4064,
      "##etts": 4065,
      "grew": 4066,
      "electron": 4067,
      "##erse": 4068,
      "43": 4069,
      "abb": 4070,
      "serving": 4071,
      "fix": 4072,
      "trees": 4073,
      "emot": 4074,
      "asp": 4075,
      "##ucky": 4076,
      "situation": 4077,
      "##ucle": 4078,
      "replied": 4079,
      "forms": 4080,
      "garden": 4081,
      "defin": 4082,
      "sund": 4083,
      "ther": 4084,
      "##astic": 4085,
      "defense": 4086,
      "suff": 4087,
      "shad": 4088,
      "##aya": 4089,
      "##pped": 4090,
      "crime": 4091,
      "element": 4092,
      "bern": 4093,
      "##umed": 4094,
      "sorry": 4095,
      "ukrain": 4096,
      "wit": 4097,
      "rules": 4098,
      "continu": 4099,
      "##ez": 4100,
      "orche": 4101,
      "##ancy": 4102,
      "asia": 4103,
      "spoke": 4104,
      "wonder": 4105,
      "williams": 4106,
      "daily": 4107,
      "chest": 4108,
      "parish": 4109,
      "42": 4110,
      "appar": 4111,
      "cov": 4112,
      "image": 4113,
      "numbers": 4114,
      "laws": 4115,
      "vac": 4116,
      "bright": 4117,
      "##ali": 4118,
      "##achus": 4119,
      "map": 4120,
      "mist": 4121,
      "clubs": 4122,
      "swim": 4123,
      "##ented": 4124,
      "tear": 4125,
      "creek": 4126,
      "##arm": 4127,
      "authority": 4128,
      "##unk": 4129,
      "forg": 4130,
      "georgia": 4131,
      "carr": 4132,
      "##inois": 4133,
      "39": 4134,
      "appears": 4135,
      "##lict": 4136,
      "subsequently": 4137,
      "##isation": 4138,
      "nearby": 4139,
      "jr": 4140,
      "magic": 4141,
      "hang": 4142,
      "watched": 4143,
      "normal": 4144,
      "rule": 4145,
      "mort": 4146,
      "purpose": 4147,
      "fighting": 4148,
      "lieut": 4149,
      "display": 4150,
      "poland": 4151,
      "gather": 4152,
      "thank": 4153,
      "##aud": 4154,
      "##burgh": 4155,
      "64": 4156,
      "baby": 4157,
      "politics": 4158,
      "eat": 4159,
      "kenn": 4160,
      "advent": 4161,
      "columbia": 4162,
      "suddenly": 4163,
      "critical": 4164,
      "intellig": 4165,
      "illinois": 4166,
      "ken": 4167,
      "presented": 4168,
      "operated": 4169,
      "agreed": 4170,
      "##win": 4171,
      "##rid": 4172,
      "##gen": 4173,
      "##kins": 4174,
      "kick": 4175,
      "1942": 4176,
      "imper": 4177,
      "positive": 4178,
      "communities": 4179,
      "remaining": 4180,
      "yeah": 4181,
      "architecture": 4182,
      "ultim": 4183,
      "alexander": 4184,
      "##rem": 4185,
      "##ifying": 4186,
      "winners": 4187,
      "ib": 4188,
      "trou": 4189,
      "##va": 4190,
      "increase": 4191,
      "trip": 4192,
      "##ji": 4193,
      "lem": 4194,
      "protect": 4195,
      "goes": 4196,
      "##ora": 4197,
      "structures": 4198,
      "johnson": 4199,
      "##down": 4200,
      "dur": 4201,
      "academic": 4202,
      "neck": 4203,
      "1961": 4204,
      "##speople": 4205,
      "memorial": 4206,
      "1956": 4207,
      "conduct": 4208,
      "require": 4209,
      "maria": 4210,
      "tower": 4211,
      "organizations": 4212,
      "##ills": 4213,
      "##illa": 4214,
      "discovered": 4215,
      "##awn": 4216,
      "1948": 4217,
      "dropped": 4218,
      "##hr": 4219,
      "##80": 4220,
      "respond": 4221,
      "##ato": 4222,
      "barb": 4223,
      "eg": 4224,
      "##lad": 4225,
      "##encies": 4226,
      "von": 4227,
      "cooper": 4228,
      "##ova": 4229,
      "##aming": 4230,
      "mathem": 4231,
      "cz": 4232,
      "claimed": 4233,
      "install": 4234,
      "racing": 4235,
      "##uch": 4236,
      "extended": 4237,
      "urban": 4238,
      "supported": 4239,
      "neighbor": 4240,
      "looks": 4241,
      "mountains": 4242,
      "massachus": 4243,
      "wound": 4244,
      "actors": 4245,
      "latin": 4246,
      "joint": 4247,
      "##uts": 4248,
      "separate": 4249,
      "join": 4250,
      "mixed": 4251,
      "presence": 4252,
      "massachusetts": 4253,
      "industrial": 4254,
      "francisco": 4255,
      "territory": 4256,
      "1958": 4257,
      "jeff": 4258,
      "choice": 4259,
      "simple": 4260,
      "variety": 4261,
      "hadn": 4262,
      "##onia": 4263,
      "oxford": 4264,
      "##ety": 4265,
      "##ighter": 4266,
      "expected": 4267,
      "serve": 4268,
      "##uz": 4269,
      "piece": 4270,
      "##cul": 4271,
      "traff": 4272,
      "##iang": 4273,
      "1959": 4274,
      "90": 4275,
      "medalists": 4276,
      "repe": 4277,
      "pra": 4278,
      "mit": 4279,
      "showed": 4280,
      "subs": 4281,
      "influence": 4282,
      "plot": 4283,
      "nucle": 4284,
      "worth": 4285,
      "##da": 4286,
      "1943": 4287,
      "purs": 4288,
      "shel": 4289,
      "sitting": 4290,
      "pair": 4291,
      "ocean": 4292,
      "##oned": 4293,
      "47": 4294,
      "##stra": 4295,
      "hong": 4296,
      "wed": 4297,
      "jackson": 4298,
      "##atively": 4299,
      "villages": 4300,
      "ones": 4301,
      "inh": 4302,
      "lit": 4303,
      "sportspeople": 4304,
      "latter": 4305,
      "whis": 4306,
      "products": 4307,
      "##entr": 4308,
      "##uries": 4309,
      "##inem": 4310,
      "##adel": 4311,
      "ordered": 4312,
      "49": 4313,
      "##ograp": 4314,
      "scul": 4315,
      "lad": 4316,
      "treatment": 4317,
      "machine": 4318,
      "##jo": 4319,
      "unkn": 4320,
      "org": 4321,
      "1939": 4322,
      "lieutenant": 4323,
      "##itan": 4324,
      "bh": 4325,
      "##orter": 4326,
      "1940": 4327,
      "shook": 4328,
      "musl": 4329,
      "marine": 4330,
      "moon": 4331,
      "46": 4332,
      "filled": 4333,
      "1957": 4334,
      "kong": 4335,
      "ahead": 4336,
      "memory": 4337,
      "safe": 4338,
      "tay": 4339,
      "nic": 4340,
      "preserv": 4341,
      "##yt": 4342,
      "recover": 4343,
      "warm": 4344,
      "none": 4345,
      "victoria": 4346,
      "1946": 4347,
      "republican": 4348,
      "##aned": 4349,
      "1950": 4350,
      "troops": 4351,
      "ts": 4352,
      "partners": 4353,
      "ga": 4354,
      "individuals": 4355,
      "conditions": 4356,
      "benef": 4357,
      "rot": 4358,
      "reception": 4359,
      "heat": 4360,
      "pad": 4361,
      "conflict": 4362,
      "responsible": 4363,
      "newspaper": 4364,
      "##don": 4365,
      "contemporary": 4366,
      "cool": 4367,
      "freedom": 4368,
      "earned": 4369,
      "save": 4370,
      "windows": 4371,
      "shoulder": 4372,
      "##aked": 4373,
      "##thur": 4374,
      "1941": 4375,
      "label": 4376,
      "elizabeth": 4377,
      "pp": 4378,
      "suit": 4379,
      "##emic": 4380,
      "chris": 4381,
      "emper": 4382,
      "marsh": 4383,
      "promin": 4384,
      "bath": 4385,
      "referred": 4386,
      "representatives": 4387,
      "##olled": 4388,
      "opera": 4389,
      "kil": 4390,
      "charge": 4391,
      "needs": 4392,
      "brain": 4393,
      "3rd": 4394,
      "snow": 4395,
      "kir": 4396,
      "kim": 4397,
      "quality": 4398,
      "ability": 4399,
      "profile": 4400,
      "expression": 4401,
      "removed": 4402,
      "campus": 4403,
      "towns": 4404,
      "##hol": 4405,
      "restr": 4406,
      "##aded": 4407,
      "steel": 4408,
      "1952": 4409,
      "piano": 4410,
      "electr": 4411,
      "vote": 4412,
      "leaves": 4413,
      "analysis": 4414,
      "##greg": 4415,
      "obl": 4416,
      "acting": 4417,
      "episodes": 4418,
      "##acing": 4419,
      "ker": 4420,
      "lev": 4421,
      "##agn": 4422,
      "48": 4423,
      "finals": 4424,
      "effects": 4425,
      "levels": 4426,
      "coal": 4427,
      "headquar": 4428,
      "senate": 4429,
      "growing": 4430,
      "learn": 4431,
      "astr": 4432,
      "1947": 4433,
      "musicians": 4434,
      "recip": 4435,
      "laugh": 4436,
      "growth": 4437,
      "1955": 4438,
      "distribution": 4439,
      "syd": 4440,
      "safety": 4441,
      "cars": 4442,
      "##gs": 4443,
      "competed": 4444,
      "fresh": 4445,
      "unknown": 4446,
      "software": 4447,
      "flag": 4448,
      "knock": 4449,
      "description": 4450,
      "som": 4451,
      "scientific": 4452,
      "leon": 4453,
      "potential": 4454,
      "sculpt": 4455,
      "revealed": 4456,
      "##izes": 4457,
      "cells": 4458,
      "appearances": 4459,
      "ow": 4460,
      "entertainment": 4461,
      "seems": 4462,
      "agreement": 4463,
      "##stein": 4464,
      "ron": 4465,
      "succeed": 4466,
      "symb": 4467,
      "##mad": 4468,
      "elements": 4469,
      "demonstr": 4470,
      "integr": 4471,
      "##othes": 4472,
      "solo": 4473,
      "berlin": 4474,
      "affairs": 4475,
      "pretty": 4476,
      "eag": 4477,
      "planned": 4478,
      "plants": 4479,
      "acquired": 4480,
      "hay": 4481,
      "deliver": 4482,
      "gab": 4483,
      "jam": 4484,
      "##orporated": 4485,
      "##oh": 4486,
      "equip": 4487,
      "attend": 4488,
      "isn": 4489,
      "naval": 4490,
      "crown": 4491,
      "proposed": 4492,
      "increasing": 4493,
      "75": 4494,
      "bbc": 4495,
      "##isted": 4496,
      "mrs": 4497,
      "planet": 4498,
      "battal": 4499,
      "easy": 4500,
      "administrative": 4501,
      "composed": 4502,
      "approach": 4503,
      "ble": 4504,
      "spot": 4505,
      "##bing": 4506,
      "fat": 4507,
      "poll": 4508,
      "##oster": 4509,
      "##onic": 4510,
      "protection": 4511,
      "thin": 4512,
      "ways": 4513,
      "estate": 4514,
      "expect": 4515,
      "lips": 4516,
      "squadron": 4517,
      "articles": 4518,
      "##gend": 4519,
      "##anth": 4520,
      "interp": 4521,
      "1980s": 4522,
      "1954": 4523,
      "parties": 4524,
      "##hens": 4525,
      "sweet": 4526,
      "maxim": 4527,
      "scen": 4528,
      "soccer": 4529,
      "##oral": 4530,
      "viet": 4531,
      "##uan": 4532,
      "capac": 4533,
      "##30": 4534,
      "walls": 4535,
      "activity": 4536,
      "##ologist": 4537,
      "##eed": 4538,
      "wars": 4539,
      "##eless": 4540,
      "rome": 4541,
      "##atever": 4542,
      "illustr": 4543,
      "extra": 4544,
      "1953": 4545,
      "##ube": 4546,
      "initi": 4547,
      "content": 4548,
      "jazz": 4549,
      "secondary": 4550,
      "citizens": 4551,
      "coff": 4552,
      "whatever": 4553,
      "walking": 4554,
      "##iel": 4555,
      "##mission": 4556,
      "55": 4557,
      "grade": 4558,
      "supreme": 4559,
      "risk": 4560,
      "broken": 4561,
      "questions": 4562,
      "founder": 4563,
      "initial": 4564,
      "swedish": 4565,
      "featuring": 4566,
      "##uv": 4567,
      "duke": 4568,
      "##wise": 4569,
      "##una": 4570,
      "ka": 4571,
      "semi": 4572,
      "1949": 4573,
      "mainly": 4574,
      "wheel": 4575,
      "sr": 4576,
      "steve": 4577,
      "sciences": 4578,
      "evening": 4579,
      "seeing": 4580,
      "situ": 4581,
      "paid": 4582,
      "wel": 4583,
      "condition": 4584,
      "##ulations": 4585,
      "funct": 4586,
      "##aging": 4587,
      "scholars": 4588,
      "lies": 4589,
      "corporation": 4590,
      "##oms": 4591,
      "dress": 4592,
      "sydney": 4593,
      "hug": 4594,
      "constitu": 4595,
      "tight": 4596,
      "fant": 4597,
      "motion": 4598,
      "sig": 4599,
      "##opher": 4600,
      "exchange": 4601,
      "drag": 4602,
      "promoted": 4603,
      "bibli": 4604,
      "slightly": 4605,
      "headed": 4606,
      "learning": 4607,
      "flying": 4608,
      "impress": 4609,
      "religion": 4610,
      "adam": 4611,
      "rab": 4612,
      "emperor": 4613,
      "broke": 4614,
      "baron": 4615,
      "provides": 4616,
      "52": 4617,
      "becomes": 4618,
      "##iber": 4619,
      "##itage": 4620,
      "flat": 4621,
      "tend": 4622,
      "kal": 4623,
      "queens": 4624,
      "formerly": 4625,
      "usa": 4626,
      "kat": 4627,
      "types": 4628,
      "merg": 4629,
      "legs": 4630,
      "reserve": 4631,
      "177": 4632,
      "crimin": 4633,
      "catch": 4634,
      "medicine": 4635,
      "54": 4636,
      "cav": 4637,
      "##ington": 4638,
      "##resp": 4639,
      "equipment": 4640,
      "mentioned": 4641,
      "abd": 4642,
      "##bour": 4643,
      "creation": 4644,
      "contest": 4645,
      "animal": 4646,
      "ty": 4647,
      "##eland": 4648,
      "pressure": 4649,
      "fleet": 4650,
      "closer": 4651,
      "ira": 4652,
      "boat": 4653,
      "animals": 4654,
      "##ika": 4655,
      "languages": 4656,
      "descent": 4657,
      "##span": 4658,
      "ward": 4659,
      "##tery": 4660,
      "engineer": 4661,
      "sword": 4662,
      "infantry": 4663,
      "sexual": 4664,
      "##come": 4665,
      "ell": 4666,
      "projects": 4667,
      "doll": 4668,
      "accepted": 4669,
      "aim": 4670,
      "smaller": 4671,
      "##onto": 4672,
      "serious": 4673,
      "americ": 4674,
      "partner": 4675,
      "diam": 4676,
      "picture": 4677,
      "concentr": 4678,
      "conver": 4679,
      "dipl": 4680,
      "highly": 4681,
      "rivers": 4682,
      "##itors": 4683,
      "fox": 4684,
      "danc": 4685,
      "fully": 4686,
      "##ima": 4687,
      "##199": 4688,
      "reality": 4689,
      "heritage": 4690,
      "legend": 4691,
      "lew": 4692,
      "agency": 4693,
      "ax": 4694,
      "scale": 4695,
      "alongside": 4696,
      "empt": 4697,
      "ny": 4698,
      "owner": 4699,
      "younger": 4700,
      "formation": 4701,
      "korea": 4702,
      "1970s": 4703,
      "check": 4704,
      "www": 4705,
      "perman": 4706,
      "1951": 4707,
      "##60": 4708,
      "price": 4709,
      "1936": 4710,
      "sons": 4711,
      "##cious": 4712,
      "##ici": 4713,
      "aband": 4714,
      "imple": 4715,
      "excl": 4716,
      "korean": 4717,
      "##war": 4718,
      "##iat": 4719,
      "improv": 4720,
      "##ulf": 4721,
      "##lers": 4722,
      "virt": 4723,
      "disappear": 4724,
      "##iring": 4725,
      "dor": 4726,
      "technical": 4727,
      "##eman": 4728,
      "deputy": 4729,
      "encour": 4730,
      "cem": 4731,
      "advanced": 4732,
      "candidate": 4733,
      "destroyed": 4734,
      "##oses": 4735,
      "##iot": 4736,
      "##isa": 4737,
      "##bre": 4738,
      "owners": 4739,
      "catal": 4740,
      "restaur": 4741,
      "pros": 4742,
      "thanks": 4743,
      "lind": 4744,
      "1990s": 4745,
      "##ram": 4746,
      "lt": 4747,
      "issued": 4748,
      "##can": 4749,
      "vent": 4750,
      "intended": 4751,
      "classical": 4752,
      "disease": 4753,
      "compared": 4754,
      "escape": 4755,
      "gives": 4756,
      "serb": 4757,
      "novels": 4758,
      "transform": 4759,
      "300": 4760,
      "##chester": 4761,
      "internet": 4762,
      "##iday": 4763,
      "split": 4764,
      "kel": 4765,
      "chamber": 4766,
      "brad": 4767,
      "dial": 4768,
      "challenge": 4769,
      "statistics": 4770,
      "cow": 4771,
      "##otten": 4772,
      "bottom": 4773,
      "powerful": 4774,
      "residents": 4775,
      "##yth": 4776,
      "alt": 4777,
      "recently": 4778,
      "##wide": 4779,
      "om": 4780,
      "##iform": 4781,
      "compar": 4782,
      "##stone": 4783,
      "shortly": 4784,
      "fab": 4785,
      "##sen": 4786,
      "##rich": 4787,
      "kitchen": 4788,
      "agent": 4789,
      "##anna": 4790,
      "frame": 4791,
      "taught": 4792,
      "kur": 4793,
      "leadership": 4794,
      "finish": 4795,
      "robin": 4796,
      "feed": 4797,
      "greg": 4798,
      "##bec": 4799,
      "settlement": 4800,
      "graduated": 4801,
      "##ographer": 4802,
      "prevent": 4803,
      "pleas": 4804,
      "resources": 4805,
      "speaking": 4806,
      "liberal": 4807,
      "races": 4808,
      "##ailed": 4809,
      "arthur": 4810,
      "driver": 4811,
      "correct": 4812,
      "necessary": 4813,
      "178": 4814,
      "consists": 4815,
      "bronze": 4816,
      "##owed": 4817,
      "cinem": 4818,
      "##olved": 4819,
      "twice": 4820,
      "pattern": 4821,
      "##iro": 4822,
      "##akh": 4823,
      "czech": 4824,
      "##inity": 4825,
      "##ava": 4826,
      "sight": 4827,
      "nice": 4828,
      "aer": 4829,
      "##aling": 4830,
      "teaching": 4831,
      "challeng": 4832,
      "experiment": 4833,
      "watching": 4834,
      "1938": 4835,
      "nether": 4836,
      "##ione": 4837,
      "53": 4838,
      "##ensity": 4839,
      "labour": 4840,
      "obv": 4841,
      "publishing": 4842,
      "hat": 4843,
      "uncle": 4844,
      "clar": 4845,
      "habit": 4846,
      "gent": 4847,
      "##ourne": 4848,
      "damage": 4849,
      "avenue": 4850,
      "produce": 4851,
      "educational": 4852,
      "publications": 4853,
      "exactly": 4854,
      "amaz": 4855,
      "##oration": 4856,
      "gate": 4857,
      "terror": 4858,
      "fingers": 4859,
      "jur": 4860,
      "sales": 4861,
      "##attle": 4862,
      "yard": 4863,
      "##bl": 4864,
      "santa": 4865,
      "alf": 4866,
      "spect": 4867,
      "rise": 4868,
      "bc": 4869,
      "guess": 4870,
      "transferred": 4871,
      "rough": 4872,
      "economy": 4873,
      "accident": 4874,
      "link": 4875,
      "housing": 4876,
      "gang": 4877,
      "##ves": 4878,
      "cambridge": 4879,
      "basis": 4880,
      "railroad": 4881,
      "##iser": 4882,
      "1918": 4883,
      "simon": 4884,
      "##athan": 4885,
      "##9e9": 4886,
      "whisper": 4887,
      "e9e": 4888,
      "e9e9e9": 4889,
      "fuck": 4890,
      "bull": 4891,
      "constructed": 4892,
      "vic": 4893,
      "##ashed": 4894,
      "##enna": 4895,
      "implement": 4896,
      "toronto": 4897,
      "climate": 4898,
      "57": 4899,
      "planning": 4900,
      "sides": 4901,
      "##adelph": 4902,
      "shock": 4903,
      "efforts": 4904,
      "gon": 4905,
      "sites": 4906,
      "instrument": 4907,
      "consum": 4908,
      "barr": 4909,
      "1937": 4910,
      "basic": 4911,
      "lor": 4912,
      "strength": 4913,
      "rapid": 4914,
      "documentary": 4915,
      "comfort": 4916,
      "generation": 4917,
      "##ogue": 4918,
      "picked": 4919,
      "wilson": 4920,
      "elimin": 4921,
      "##ls": 4922,
      "##pa": 4923,
      "controvers": 4924,
      "turning": 4925,
      "##owing": 4926,
      "oak": 4927,
      "ontar": 4928,
      "##osen": 4929,
      "##set": 4930,
      "##unch": 4931,
      "##ropol": 4932,
      "supposed": 4933,
      "cant": 4934,
      "nerv": 4935,
      "ethn": 4936,
      "yourself": 4937,
      "constant": 4938,
      "stepped": 4939,
      "thoughts": 4940,
      "##asy": 4941,
      "linear": 4942,
      "grey": 4943,
      "##oman": 4944,
      "recognized": 4945,
      "write": 4946,
      "weapons": 4947,
      "ali": 4948,
      "hurt": 4949,
      "##ivity": 4950,
      "prepar": 4951,
      "philadelph": 4952,
      "resc": 4953,
      "letters": 4954,
      "facilities": 4955,
      "ontario": 4956,
      "taylor": 4957,
      "hyp": 4958,
      "seg": 4959,
      "stephen": 4960,
      "enemy": 4961,
      "fash": 4962,
      "charts": 4963,
      "cerem": 4964,
      "aid": 4965,
      "capacity": 4966,
      "##onym": 4967,
      "thick": 4968,
      "##eline": 4969,
      "officially": 4970,
      "bond": 4971,
      "laug": 4972,
      "##asty": 4973,
      "chur": 4974,
      "resident": 4975,
      "environmental": 4976,
      "traffic": 4977,
      "pin": 4978,
      "naz": 4979,
      "##met": 4980,
      "scar": 4981,
      "zone": 4982,
      "clin": 4983,
      "mexican": 4984,
      "hid": 4985,
      "districts": 4986,
      "philadelphia": 4987,
      "combined": 4988,
      "folk": 4989,
      "tells": 4990,
      "##sa": 4991,
      "dry": 4992,
      "proceed": 4993,
      "wolf": 4994,
      "models": 4995,
      "obt": 4996,
      "seconds": 4997,
      "##the": 4998,
      "1960s": 4999,
      "representative": 5000,
      "weather": 5001,
      "56": 5002,
      "dism": 5003,
      "combat": 5004,
      "suggested": 5005,
      "##een": 5006,
      "pakistan": 5007,
      "evil": 5008,
      "losing": 5009,
      "laughed": 5010,
      "geography": 5011,
      "guide": 5012,
      "##com": 5013,
      "##lav": 5014,
      "primarily": 5015,
      "operating": 5016,
      "defeat": 5017,
      "harry": 5018,
      "eric": 5019,
      "cycl": 5020,
      "vs": 5021,
      "guest": 5022,
      "lam": 5023,
      "clark": 5024,
      "vess": 5025,
      "follows": 5026,
      "kitt": 5027,
      "##aki": 5028,
      "jacob": 5029,
      "journey": 5030,
      "receive": 5031,
      "horn": 5032,
      "protest": 5033,
      "andre": 5034,
      "pip": 5035,
      "##town": 5036,
      "##ections": 5037,
      "bodies": 5038,
      "renamed": 5039,
      "principal": 5040,
      "defend": 5041,
      "unable": 5042,
      "raj": 5043,
      "##igen": 5044,
      "minnes": 5045,
      "sell": 5046,
      "reference": 5047,
      "imperial": 5048,
      "powers": 5049,
      "palace": 5050,
      "males": 5051,
      "orchestra": 5052,
      "pilot": 5053,
      "christmas": 5054,
      "grass": 5055,
      "dedicated": 5056,
      "graph": 5057,
      "vehicle": 5058,
      "painting": 5059,
      "accomp": 5060,
      "##40": 5061,
      "tony": 5062,
      "declared": 5063,
      "reviews": 5064,
      "flood": 5065,
      "depend": 5066,
      "##enz": 5067,
      "rear": 5068,
      "pool": 5069,
      "compr": 5070,
      "wisc": 5071,
      "fashion": 5072,
      "entry": 5073,
      "minnesota": 5074,
      "netherlands": 5075,
      "drew": 5076,
      "gets": 5077,
      "gram": 5078,
      "surn": 5079,
      "captured": 5080,
      "witness": 5081,
      "dub": 5082,
      "humans": 5083,
      "titled": 5084,
      "##onsin": 5085,
      "jess": 5086,
      "intelligence": 5087,
      "tu": 5088,
      "1935": 5089,
      "thor": 5090,
      "battalion": 5091,
      "##bourne": 5092,
      "hero": 5093,
      "designated": 5094,
      "alle": 5095,
      "buried": 5096,
      "##isf": 5097,
      "##bit": 5098,
      "applied": 5099,
      "1930": 5100,
      "returning": 5101,
      "confirmed": 5102,
      "supply": 5103,
      "distingu": 5104,
      "gray": 5105,
      "begins": 5106,
      "divided": 5107,
      "wisconsin": 5108,
      "headquarters": 5109,
      "easily": 5110,
      "roof": 5111,
      "measure": 5112,
      "reports": 5113,
      "prominent": 5114,
      "gil": 5115,
      "brian": 5116,
      "settled": 5117,
      "##itzer": 5118,
      "http": 5119,
      "react": 5120,
      "buck": 5121,
      "assigned": 5122,
      "1919": 5123,
      "kids": 5124,
      "solid": 5125,
      "format": 5126,
      "jane": 5127,
      "occurred": 5128,
      "fit": 5129,
      "sharp": 5130,
      "##respond": 5131,
      "birds": 5132,
      "conducted": 5133,
      "surrounding": 5134,
      "bird": 5135,
      "trop": 5136,
      "##ushing": 5137,
      "freder": 5138,
      "armed": 5139,
      "##icient": 5140,
      "recomm": 5141,
      "##ibuted": 5142,
      "##elle": 5143,
      "independence": 5144,
      "correspond": 5145,
      "organized": 5146,
      "##oured": 5147,
      "##hu": 5148,
      "um": 5149,
      "mathemat": 5150,
      "tong": 5151,
      "budd": 5152,
      "sax": 5153,
      "vision": 5154,
      "1914": 5155,
      "wants": 5156,
      "tennis": 5157,
      "pushed": 5158,
      "composer": 5159,
      "actions": 5160,
      "hills": 5161,
      "churches": 5162,
      "41": 5163,
      "avoid": 5164,
      "titles": 5165,
      "poetry": 5166,
      "divers": 5167,
      "acts": 5168,
      "nik": 5169,
      "por": 5170,
      "sounds": 5171,
      "##uled": 5172,
      "pieces": 5173,
      "##ographic": 5174,
      "##sk": 5175,
      "##aga": 5176,
      "typically": 5177,
      "bibliography": 5178,
      "load": 5179,
      "##car": 5180,
      "loud": 5181,
      "mile": 5182,
      "gor": 5183,
      "4th": 5184,
      "retire": 5185,
      "orient": 5186,
      "killing": 5187,
      "nap": 5188,
      "proper": 5189,
      "message": 5190,
      "wis": 5191,
      "##atures": 5192,
      "songwr": 5193,
      "seats": 5194,
      "##hl": 5195,
      "##jan": 5196,
      "jump": 5197,
      "pointed": 5198,
      "strange": 5199,
      "shared": 5200,
      "entrance": 5201,
      "reject": 5202,
      "programming": 5203,
      "cris": 5204,
      "participated": 5205,
      "##ordin": 5206,
      "##umped": 5207,
      "##sey": 5208,
      "listing": 5209,
      "atlantic": 5210,
      "##ns": 5211,
      "noticed": 5212,
      "stret": 5213,
      "interpret": 5214,
      "realized": 5215,
      "hors": 5216,
      "##etery": 5217,
      "females": 5218,
      "immigr": 5219,
      "pictures": 5220,
      "1933": 5221,
      "distinct": 5222,
      "etc": 5223,
      "cemetery": 5224,
      "ale": 5225,
      "wish": 5226,
      "nam": 5227,
      "occasion": 5228,
      "##ouri": 5229,
      "minim": 5230,
      "fame": 5231,
      "falls": 5232,
      "colonel": 5233,
      "1928": 5234,
      "knows": 5235,
      "metropol": 5236,
      "connected": 5237,
      "column": 5238,
      "jay": 5239,
      "rein": 5240,
      "alive": 5241,
      "indones": 5242,
      "ky": 5243,
      "laid": 5244,
      "institutions": 5245,
      "59": 5246,
      "1929": 5247,
      "yards": 5248,
      "nuclear": 5249,
      "steps": 5250,
      "calling": 5251,
      "slov": 5252,
      "1917": 5253,
      "retr": 5254,
      "chosen": 5255,
      "##ingly": 5256,
      "fred": 5257,
      "##estic": 5258,
      "descend": 5259,
      "fields": 5260,
      "##fc": 5261,
      "##ois": 5262,
      "huge": 5263,
      "davis": 5264,
      "##ece": 5265,
      "1934": 5266,
      "coffee": 5267,
      "##weight": 5268,
      "kings": 5269,
      "critics": 5270,
      "##onents": 5271,
      "fm": 5272,
      "##apping": 5273,
      "setting": 5274,
      "commonly": 5275,
      "affili": 5276,
      "fu": 5277,
      "silent": 5278,
      "##osa": 5279,
      "##put": 5280,
      "shout": 5281,
      "canc": 5282,
      "jews": 5283,
      "script": 5284,
      "norwe": 5285,
      "federation": 5286,
      "##works": 5287,
      "bought": 5288,
      "58": 5289,
      "conclud": 5290,
      "##aver": 5291,
      "lyr": 5292,
      "purchased": 5293,
      "details": 5294,
      "positions": 5295,
      "learned": 5296,
      "sweden": 5297,
      "##25": 5298,
      "joy": 5299,
      "speech": 5300,
      "drums": 5301,
      "suffered": 5302,
      "iraq": 5303,
      "legislative": 5304,
      "##izz": 5305,
      "weak": 5306,
      "grace": 5307,
      "populated": 5308,
      "understanding": 5309,
      "##under": 5310,
      "theater": 5311,
      "bah": 5312,
      "vocal": 5313,
      "cass": 5314,
      "nep": 5315,
      "##aled": 5316,
      "##oval": 5317,
      "core": 5318,
      "rif": 5319,
      "##heim": 5320,
      "sunday": 5321,
      "##ounds": 5322,
      "focused": 5323,
      "loved": 5324,
      "ross": 5325,
      "##unte": 5326,
      "transportation": 5327,
      "admir": 5328,
      "indiana": 5329,
      "##owa": 5330,
      "spons": 5331,
      "crowd": 5332,
      "sid": 5333,
      "stared": 5334,
      "lect": 5335,
      "kansas": 5336,
      "sust": 5337,
      "##real": 5338,
      "contain": 5339,
      "hosted": 5340,
      "votes": 5341,
      "sixth": 5342,
      "##aska": 5343,
      "brigade": 5344,
      "haven": 5345,
      "literary": 5346,
      "##kh": 5347,
      "suppl": 5348,
      "400": 5349,
      "continues": 5350,
      "1932": 5351,
      "cher": 5352,
      "wave": 5353,
      "##amin": 5354,
      "##ilton": 5355,
      "tra": 5356,
      "fought": 5357,
      "physic": 5358,
      "norwegian": 5359,
      "stuff": 5360,
      "##friend": 5361,
      "##oir": 5362,
      "util": 5363,
      "si": 5364,
      "volunte": 5365,
      "heaven": 5366,
      "##otic": 5367,
      "camer": 5368,
      "strike": 5369,
      "##mill": 5370,
      "empty": 5371,
      "cos": 5372,
      "streets": 5373,
      "han": 5374,
      "hart": 5375,
      "priest": 5376,
      "faced": 5377,
      "possibly": 5378,
      "##osis": 5379,
      "##asa": 5380,
      "buy": 5381,
      "gained": 5382,
      "orth": 5383,
      "dram": 5384,
      "lap": 5385,
      "guns": 5386,
      "##water": 5387,
      "##orney": 5388,
      "nominated": 5389,
      "adopted": 5390,
      "plate": 5391,
      "listen": 5392,
      "exhibition": 5393,
      "jenn": 5394,
      "##ito": 5395,
      "identified": 5396,
      "1924": 5397,
      "##bel": 5398,
      "telling": 5399,
      "##ensis": 5400,
      "thirty": 5401,
      "tai": 5402,
      "opportunity": 5403,
      "silence": 5404,
      "gi": 5405,
      "existence": 5406,
      "launch": 5407,
      "##worth": 5408,
      "respectively": 5409,
      "alternative": 5410,
      "##23": 5411,
      "sed": 5412,
      "ay": 5413,
      "##lyn": 5414,
      "kam": 5415,
      "archae": 5416,
      "##aine": 5417,
      "vert": 5418,
      "classic": 5419,
      "orders": 5420,
      "roles": 5421,
      "kl": 5422,
      "##regon": 5423,
      "bowl": 5424,
      "bos": 5425,
      "passing": 5426,
      "refused": 5427,
      "dragon": 5428,
      "explained": 5429,
      "philosophy": 5430,
      "lewis": 5431,
      "twelv": 5432,
      "unique": 5433,
      "pir": 5434,
      "materials": 5435,
      "1927": 5436,
      "tank": 5437,
      "princess": 5438,
      "summ": 5439,
      "##born": 5440,
      "##aria": 5441,
      "##onent": 5442,
      "impl": 5443,
      "63": 5444,
      "propos": 5445,
      "larg": 5446,
      "inspired": 5447,
      "theme": 5448,
      "tears": 5449,
      "ghost": 5450,
      "missouri": 5451,
      "##lets": 5452,
      "mam": 5453,
      "##igg": 5454,
      "hey": 5455,
      "grin": 5456,
      "##acks": 5457,
      "harm": 5458,
      "attacks": 5459,
      "attorney": 5460,
      "category": 5461,
      "communist": 5462,
      "twelve": 5463,
      "households": 5464,
      "##urer": 5465,
      "colorado": 5466,
      "lands": 5467,
      "wings": 5468,
      "reduced": 5469,
      "spiritual": 5470,
      "consequ": 5471,
      "wins": 5472,
      "advoc": 5473,
      "wealth": 5474,
      "sche": 5475,
      "##chers": 5476,
      "##pe": 5477,
      "holly": 5478,
      "audience": 5479,
      "mol": 5480,
      "oregon": 5481,
      "teen": 5482,
      "niger": 5483,
      "determined": 5484,
      "figures": 5485,
      "pav": 5486,
      "quant": 5487,
      "##je": 5488,
      "allowing": 5489,
      "turkey": 5490,
      "classes": 5491,
      "comics": 5492,
      "shape": 5493,
      "knowing": 5494,
      "steam": 5495,
      "sarah": 5496,
      "##watch": 5497,
      "phase": 5498,
      "##mont": 5499,
      "weekly": 5500,
      "chemical": 5501,
      "consult": 5502,
      "conservative": 5503,
      "newly": 5504,
      "vari": 5505,
      "ment": 5506,
      "1900": 5507,
      "greatest": 5508,
      "offers": 5509,
      "criminal": 5510,
      "claims": 5511,
      "insur": 5512,
      "myst": 5513,
      "granted": 5514,
      "patients": 5515,
      "opposition": 5516,
      "publisher": 5517,
      "neither": 5518,
      "##anny": 5519,
      "##fefe": 5520,
      "##time": 5521,
      "##70": 5522,
      "##load": 5523,
      "18th": 5524,
      "vehicles": 5525,
      "reasons": 5526,
      "officials": 5527,
      "handed": 5528,
      "1931": 5529,
      "methods": 5530,
      "##illery": 5531,
      "##anta": 5532,
      "finding": 5533,
      "bure": 5534,
      "##sky": 5535,
      "trouble": 5536,
      "orange": 5537,
      "##astr": 5538,
      "opin": 5539,
      "diplom": 5540,
      "relief": 5541,
      "facility": 5542,
      "constitution": 5543,
      "calls": 5544,
      "mosc": 5545,
      "widely": 5546,
      "wrestling": 5547,
      "clothes": 5548,
      "ariz": 5549,
      "presidential": 5550,
      "connection": 5551,
      "1925": 5552,
      "ark": 5553,
      "evolution": 5554,
      "##akers": 5555,
      "wet": 5556,
      "poly": 5557,
      "hans": 5558,
      "gord": 5559,
      "##ao": 5560,
      "extrem": 5561,
      "cu": 5562,
      "marked": 5563,
      "malays": 5564,
      "largely": 5565,
      "sacr": 5566,
      "prefer": 5567,
      "ry": 5568,
      "cloth": 5569,
      "##edia": 5570,
      "dat": 5571,
      "estimated": 5572,
      "creating": 5573,
      "negative": 5574,
      "adapt": 5575,
      "pand": 5576,
      "territor": 5577,
      "satur": 5578,
      "treas": 5579,
      "1921": 5580,
      "doors": 5581,
      "journalist": 5582,
      "##pton": 5583,
      "ranked": 5584,
      "height": 5585,
      "nar": 5586,
      "publication": 5587,
      "pod": 5588,
      "advert": 5589,
      "americans": 5590,
      "1922": 5591,
      "pock": 5592,
      "flo": 5593,
      "tenness": 5594,
      "dv": 5595,
      "1926": 5596,
      "southeast": 5597,
      "grabbed": 5598,
      "turns": 5599,
      "universe": 5600,
      "##cop": 5601,
      "ms": 5602,
      "expans": 5603,
      "sick": 5604,
      "heads": 5605,
      "spin": 5606,
      "advant": 5607,
      "warri": 5608,
      "##oted": 5609,
      "##inals": 5610,
      "regions": 5611,
      "salv": 5612,
      "brid": 5613,
      "matthew": 5614,
      "ideas": 5615,
      "fefefe": 5616,
      "task": 5617,
      "authorities": 5618,
      "serves": 5619,
      "arc": 5620,
      "glad": 5621,
      "unf": 5622,
      "pitt": 5623,
      "behavior": 5624,
      "walter": 5625,
      "wine": 5626,
      "neighborhood": 5627,
      "d6": 5628,
      "providing": 5629,
      "tag": 5630,
      "hou": 5631,
      "tennessee": 5632,
      "visual": 5633,
      "##ighth": 5634,
      "##24": 5635,
      "mp": 5636,
      "cad": 5637,
      "educated": 5638,
      "desk": 5639,
      "1923": 5640,
      "notice": 5641,
      "trump": 5642,
      "accompan": 5643,
      "violence": 5644,
      "starring": 5645,
      "defence": 5646,
      "wearing": 5647,
      "ending": 5648,
      "##unct": 5649,
      "##ulate": 5650,
      "##no": 5651,
      "##asts": 5652,
      "ches": 5653,
      "merch": 5654,
      "investigation": 5655,
      "mes": 5656,
      "alliance": 5657,
      "khan": 5658,
      "whit": 5659,
      "scoring": 5660,
      "promotion": 5661,
      "desert": 5662,
      "norway": 5663,
      "nich": 5664,
      "mobile": 5665,
      "guards": 5666,
      "ends": 5667,
      "convention": 5668,
      "answered": 5669,
      "defined": 5670,
      "99": 5671,
      "arizona": 5672,
      "exped": 5673,
      "##rence": 5674,
      "anyway": 5675,
      "plus": 5676,
      "internal": 5677,
      "effective": 5678,
      "directors": 5679,
      "narrow": 5680,
      "##inger": 5681,
      "##vin": 5682,
      "median": 5683,
      "fel": 5684,
      "northwest": 5685,
      "##azy": 5686,
      "identity": 5687,
      "reaching": 5688,
      "turkish": 5689,
      "beside": 5690,
      "bapt": 5691,
      "existing": 5692,
      "##uge": 5693,
      "belief": 5694,
      "##uted": 5695,
      "1912": 5696,
      "##pan": 5697,
      "performing": 5698,
      "waters": 5699,
      "dave": 5700,
      "strateg": 5701,
      "##otyp": 5702,
      "holds": 5703,
      "tum": 5704,
      "incident": 5705,
      "experi": 5706,
      "images": 5707,
      "##fall": 5708,
      "##alty": 5709,
      "opposite": 5710,
      "kev": 5711,
      "dal": 5712,
      "##sch": 5713,
      "##omot": 5714,
      "supporting": 5715,
      "circle": 5716,
      "##oli": 5717,
      "##eral": 5718,
      "resulted": 5719,
      "permanent": 5720,
      "cape": 5721,
      "51": 5722,
      "coaches": 5723,
      "##urb": 5724,
      "moscow": 5725,
      "##etr": 5726,
      "expanded": 5727,
      "miller": 5728,
      "gain": 5729,
      "sets": 5730,
      "shif": 5731,
      "appeal": 5732,
      "sri": 5733,
      "philippines": 5734,
      "rum": 5735,
      "fuel": 5736,
      "clearly": 5737,
      "anna": 5738,
      "rud": 5739,
      "attr": 5740,
      "neur": 5741,
      "1916": 5742,
      "gay": 5743,
      "injury": 5744,
      "gro": 5745,
      "decor": 5746,
      "##apore": 5747,
      "soph": 5748,
      "passenger": 5749,
      "66": 5750,
      "repeated": 5751,
      "##mes": 5752,
      "knight": 5753,
      "performances": 5754,
      "anne": 5755,
      "resulting": 5756,
      "fan": 5757,
      "interior": 5758,
      "versions": 5759,
      "##umes": 5760,
      "anderson": 5761,
      "##rit": 5762,
      "mans": 5763,
      "doubt": 5764,
      "properties": 5765,
      "blind": 5766,
      "##uls": 5767,
      "##oti": 5768,
      "##olas": 5769,
      "athletics": 5770,
      "prepared": 5771,
      "trains": 5772,
      "ride": 5773,
      "##fa": 5774,
      "driving": 5775,
      "1915": 5776,
      "##d6d6": 5777,
      "d6d6d6": 5778,
      "tone": 5779,
      "150": 5780,
      "##laim": 5781,
      "wy": 5782,
      "gym": 5783,
      "duty": 5784,
      "fict": 5785,
      "metropolitan": 5786,
      "causing": 5787,
      "attacked": 5788,
      "bann": 5789,
      "desire": 5790,
      "##ovic": 5791,
      "migr": 5792,
      "pale": 5793,
      "wer": 5794,
      "allows": 5795,
      "unlike": 5796,
      "##iah": 5797,
      "introduction": 5798,
      "communication": 5799,
      "conversation": 5800,
      "175": 5801,
      "fold": 5802,
      "aged": 5803,
      "electronic": 5804,
      "truck": 5805,
      "artillery": 5806,
      "##iques": 5807,
      "bart": 5808,
      "##ved": 5809,
      "1910": 5810,
      "alph": 5811,
      "colonial": 5812,
      "pear": 5813,
      "stayed": 5814,
      "worry": 5815,
      "##agu": 5816,
      "##eck": 5817,
      "arrested": 5818,
      "##ache": 5819,
      "tru": 5820,
      "##mo": 5821,
      "encoun": 5822,
      "singapore": 5823,
      "keeping": 5824,
      "maryland": 5825,
      "interact": 5826,
      "bible": 5827,
      "##iliar": 5828,
      "patrick": 5829,
      "jord": 5830,
      "tonight": 5831,
      "mole": 5832,
      "advis": 5833,
      "margar": 5834,
      "dick": 5835,
      "brazilian": 5836,
      "##gers": 5837,
      "mall": 5838,
      "##usted": 5839,
      "billion": 5840,
      "##ipping": 5841,
      "76": 5842,
      "statement": 5843,
      "quebec": 5844,
      "application": 5845,
      "##inton": 5846,
      "##itled": 5847,
      "resistance": 5848,
      "##mitted": 5849,
      "equal": 5850,
      "provinc": 5851,
      "portray": 5852,
      "##otes": 5853,
      "satisf": 5854,
      "joh": 5855,
      "ford": 5856,
      "theor": 5857,
      "melbourne": 5858,
      "lane": 5859,
      "##acement": 5860,
      "##inth": 5861,
      "moth": 5862,
      "##standing": 5863,
      "cru": 5864,
      "musician": 5865,
      "tropical": 5866,
      "merc": 5867,
      "##ni": 5868,
      "##ami": 5869,
      "conte": 5870,
      "5th": 5871,
      "##right": 5872,
      "shell": 5873,
      "otherwise": 5874,
      "flu": 5875,
      "vietnam": 5876,
      "##uing": 5877,
      "alan": 5878,
      "##agan": 5879,
      "##lah": 5880,
      "lyn": 5881,
      "studios": 5882,
      "rick": 5883,
      "instruct": 5884,
      "roads": 5885,
      "recognition": 5886,
      "emph": 5887,
      "circum": 5888,
      "tail": 5889,
      "##gi": 5890,
      "ku": 5891,
      "grav": 5892,
      "rare": 5893,
      "exerc": 5894,
      "josh": 5895,
      "domestic": 5896,
      "allah": 5897,
      "sector": 5898,
      "##olis": 5899,
      "swiss": 5900,
      "ultimately": 5901,
      "95": 5902,
      "##cript": 5903,
      "shirt": 5904,
      "finger": 5905,
      "attempted": 5906,
      "##bell": 5907,
      "chain": 5908,
      "ryan": 5909,
      "spacewatch": 5910,
      "mental": 5911,
      "##ilation": 5912,
      "obtained": 5913,
      "stor": 5914,
      "1913": 5915,
      "difference": 5916,
      "##utional": 5917,
      "synt": 5918,
      "dj": 5919,
      "examples": 5920,
      "multi": 5921,
      "regarding": 5922,
      "occupied": 5923,
      "cycle": 5924,
      "painter": 5925,
      "recall": 5926,
      "queensland": 5927,
      "##198": 5928,
      "jason": 5929,
      "drawn": 5930,
      "##apes": 5931,
      "lincol": 5932,
      "tang": 5933,
      "lyrics": 5934,
      "##nie": 5935,
      "bot": 5936,
      "fans": 5937,
      "##27": 5938,
      "lose": 5939,
      "playoff": 5940,
      "##aug": 5941,
      "muslim": 5942,
      "remind": 5943,
      "excell": 5944,
      "candidates": 5945,
      "raf": 5946,
      "showing": 5947,
      "cryst": 5948,
      "croat": 5949,
      "starts": 5950,
      "##rad": 5951,
      "lan": 5952,
      "##45": 5953,
      "##kee": 5954,
      "programme": 5955,
      "##zy": 5956,
      "brun": 5957,
      "signal": 5958,
      "oldest": 5959,
      "howard": 5960,
      "##uther": 5961,
      "clock": 5962,
      "##ran": 5963,
      "bulgar": 5964,
      "attempts": 5965,
      "nag": 5966,
      "athletes": 5967,
      "##zen": 5968,
      "ni": 5969,
      "sang": 5970,
      "dean": 5971,
      "lincoln": 5972,
      "176": 5973,
      "pages": 5974,
      "banks": 5975,
      "##alt": 5976,
      "lights": 5977,
      "depress": 5978,
      "##uguese": 5979,
      "dol": 5980,
      "lob": 5981,
      "covers": 5982,
      "factory": 5983,
      "graduate": 5984,
      "veter": 5985,
      "specif": 5986,
      "anthony": 5987,
      "##vi": 5988,
      "dinner": 5989,
      "ko": 5990,
      "portuguese": 5991,
      "austria": 5992,
      "##iva": 5993,
      "sale": 5994,
      "##iants": 5995,
      "failure": 5996,
      "papers": 5997,
      "visited": 5998,
      "gran": 5999,
      "##owned": 6000,
      "toky": 6001,
      "entirely": 6002,
      "strang": 6003,
      "indeed": 6004,
      "serge": 6005,
      "portion": 6006,
      "historian": 6007,
      "##char": 6008,
      "buff": 6009,
      "subsequent": 6010,
      "ze": 6011,
      "pant": 6012,
      "##icked": 6013,
      "sv": 6014,
      "cha": 6015,
      "pope": 6016,
      "alab": 6017,
      "stick": 6018,
      "bom": 6019,
      "darkness": 6020,
      "67": 6021,
      "##ird": 6022,
      "agricultural": 6023,
      "lemmon": 6024,
      "guys": 6025,
      "##icate": 6026,
      "chile": 6027,
      "golf": 6028,
      "recru": 6029,
      "pione": 6030,
      "pure": 6031,
      "finn": 6032,
      "##ifer": 6033,
      "containing": 6034,
      "sail": 6035,
      "wooden": 6036,
      "85": 6037,
      "reaction": 6038,
      "communications": 6039,
      "dod": 6040,
      "##iven": 6041,
      "laur": 6042,
      "wake": 6043,
      "##ses": 6044,
      "schedule": 6045,
      "saturday": 6046,
      "provincial": 6047,
      "surprise": 6048,
      "seed": 6049,
      "landsc": 6050,
      "abandoned": 6051,
      "hide": 6052,
      "##lines": 6053,
      "bou": 6054,
      "cathed": 6055,
      "iowa": 6056,
      "spend": 6057,
      "dougl": 6058,
      "kentucky": 6059,
      "interested": 6060,
      "standards": 6061,
      "##wich": 6062,
      "##alo": 6063,
      "zh": 6064,
      "dynasty": 6065,
      "honours": 6066,
      "samuel": 6067,
      "1950s": 6068,
      "tomor": 6069,
      "##eller": 6070,
      "##mans": 6071,
      "sie": 6072,
      "patri": 6073,
      "##outs": 6074,
      "abc": 6075,
      "gene": 6076,
      "translation": 6077,
      "antonio": 6078,
      "dynam": 6079,
      "gib": 6080,
      "absol": 6081,
      "expansion": 6082,
      "appre": 6083,
      "succeeded": 6084,
      "##dam": 6085,
      "request": 6086,
      "ot": 6087,
      "scream": 6088,
      "##caa": 6089,
      "salt": 6090,
      "##raid": 6091,
      "density": 6092,
      "ethnic": 6093,
      "##ask": 6094,
      "chuck": 6095,
      "circuit": 6096,
      "aqu": 6097,
      "##ivals": 6098,
      "ambass": 6099,
      "73": 6100,
      "relatively": 6101,
      "##umber": 6102,
      "88": 6103,
      "receiving": 6104,
      "apartment": 6105,
      "frequently": 6106,
      "##ori": 6107,
      "portra": 6108,
      "##uses": 6109,
      "commonwe": 6110,
      "greece": 6111,
      "tokyo": 6112,
      "liver": 6113,
      "bush": 6114,
      "collected": 6115,
      "retirement": 6116,
      "uniform": 6117,
      "ech": 6118,
      "explain": 6119,
      "dioc": 6120,
      "rib": 6121,
      "strik": 6122,
      "situated": 6123,
      "##26": 6124,
      "strip": 6125,
      "carrying": 6126,
      "centuries": 6127,
      "surname": 6128,
      "nose": 6129,
      "tomorrow": 6130,
      "favour": 6131,
      "##iley": 6132,
      "achieved": 6133,
      "falling": 6134,
      "craft": 6135,
      "commonwealth": 6136,
      "##ucc": 6137,
      "##mouth": 6138,
      "68": 6139,
      "conscious": 6140,
      "inner": 6141,
      "1911": 6142,
      "##iments": 6143,
      "dangerous": 6144,
      "##abad": 6145,
      "paintings": 6146,
      "lawyer": 6147,
      "switzer": 6148,
      "kevin": 6149,
      "selling": 6150,
      "throat": 6151,
      "danish": 6152,
      "limit": 6153,
      "invited": 6154,
      "belg": 6155,
      "israeli": 6156,
      "aftern": 6157,
      "singers": 6158,
      "northeast": 6159,
      "shooting": 6160,
      "##90": 6161,
      "shield": 6162,
      "inher": 6163,
      "weapon": 6164,
      "97": 6165,
      "hearing": 6166,
      "pink": 6167,
      "teeth": 6168,
      "chec": 6169,
      "stream": 6170,
      "protected": 6171,
      "fern": 6172,
      "selection": 6173,
      "marie": 6174,
      "##okes": 6175,
      "gordon": 6176,
      "hamilton": 6177,
      "controlled": 6178,
      "beng": 6179,
      "##onian": 6180,
      "fighter": 6181,
      "arena": 6182,
      "islamic": 6183,
      "##illed": 6184,
      "homes": 6185,
      "trained": 6186,
      "approved": 6187,
      "heavily": 6188,
      "##essions": 6189,
      "emergency": 6190,
      "intel": 6191,
      "skills": 6192,
      "##ista": 6193,
      "universal": 6194,
      "founding": 6195,
      "athletic": 6196,
      "comic": 6197,
      "philip": 6198,
      "superv": 6199,
      "reign": 6200,
      "cock": 6201,
      "##enez": 6202,
      "manner": 6203,
      "surprised": 6204,
      "senator": 6205,
      "dust": 6206,
      "pas": 6207,
      "switzerland": 6208,
      "maximum": 6209,
      "1908": 6210,
      "cla": 6211,
      "manchester": 6212,
      "shadow": 6213,
      "blues": 6214,
      "hes": 6215,
      "2022": 6216,
      "tast": 6217,
      "armen": 6218,
      "beauty": 6219,
      "charlie": 6220,
      "dc": 6221,
      "flowers": 6222,
      "##ictions": 6223,
      "##die": 6224,
      "afraid": 6225,
      "string": 6226,
      "billy": 6227,
      "nfl": 6228,
      "##pool": 6229,
      "locomot": 6230,
      "allen": 6231,
      "##ager": 6232,
      "oklah": 6233,
      "liqu": 6234,
      "conservation": 6235,
      "profit": 6236,
      "##hammad": 6237,
      "##rig": 6238,
      "##oa": 6239,
      "##con": 6240,
      "##tering": 6241,
      "emphas": 6242,
      "dir": 6243,
      "commissioned": 6244,
      "scheduled": 6245,
      "kaz": 6246,
      "flash": 6247,
      "bachel": 6248,
      "lith": 6249,
      "##28": 6250,
      "##lan": 6251,
      "fellows": 6252,
      "stom": 6253,
      "##gb": 6254,
      "seventh": 6255,
      "bid": 6256,
      "index": 6257,
      "partnership": 6258,
      "loan": 6259,
      "##ares": 6260,
      "contained": 6261,
      "credit": 6262,
      "observed": 6263,
      "chron": 6264,
      "fictional": 6265,
      "elementary": 6266,
      "establishment": 6267,
      "oklahoma": 6268,
      "budget": 6269,
      "##oto": 6270,
      "78": 6271,
      "##sin": 6272,
      "actual": 6273,
      "advance": 6274,
      "##adu": 6275,
      "billboard": 6276,
      "soldier": 6277,
      "chose": 6278,
      "alabama": 6279,
      "ncaa": 6280,
      "kon": 6281,
      "recon": 6282,
      "nur": 6283,
      "jordan": 6284,
      "77": 6285,
      "##mi": 6286,
      "hungarian": 6287,
      "gentle": 6288,
      "hidden": 6289,
      "calc": 6290,
      "borough": 6291,
      "certainly": 6292,
      "composition": 6293,
      "myth": 6294,
      "##erb": 6295,
      "hits": 6296,
      "clay": 6297,
      "mi": 6298,
      "landing": 6299,
      "temperature": 6300,
      "teach": 6301,
      "recordings": 6302,
      "17th": 6303,
      "##how": 6304,
      "##istol": 6305,
      "hole": 6306,
      "finds": 6307,
      "tab": 6308,
      "harr": 6309,
      "upd": 6310,
      "aired": 6311,
      "##bra": 6312,
      "crisis": 6313,
      "boss": 6314,
      "apparently": 6315,
      "##iders": 6316,
      "worship": 6317,
      "withdr": 6318,
      "agriculture": 6319,
      "##icut": 6320,
      "##umin": 6321,
      "harvard": 6322,
      "shaped": 6323,
      "locations": 6324,
      "conqu": 6325,
      "##gas": 6326,
      "restaurant": 6327,
      "ast": 6328,
      "cave": 6329,
      "competitions": 6330,
      "amate": 6331,
      "##di": 6332,
      "decre": 6333,
      "##usal": 6334,
      "houston": 6335,
      "carp": 6336,
      "remembered": 6337,
      "sought": 6338,
      "74": 6339,
      "bringing": 6340,
      "juan": 6341,
      "fruit": 6342,
      "forth": 6343,
      "##29": 6344,
      "symbol": 6345,
      "haz": 6346,
      "##view": 6347,
      "##ieval": 6348,
      "##ho": 6349,
      "teachers": 6350,
      "hip": 6351,
      "importance": 6352,
      "elder": 6353,
      "mississ": 6354,
      "formal": 6355,
      "calm": 6356,
      "rooms": 6357,
      "flower": 6358,
      "roger": 6359,
      "singing": 6360,
      "confeder": 6361,
      "lip": 6362,
      "asking": 6363,
      "broadcasting": 6364,
      "##tle": 6365,
      "aware": 6366,
      "surg": 6367,
      "metres": 6368,
      "loy": 6369,
      "ltd": 6370,
      "##onomy": 6371,
      "developing": 6372,
      "douglas": 6373,
      "crack": 6374,
      "waited": 6375,
      "##father": 6376,
      "items": 6377,
      "cabinet": 6378,
      "functions": 6379,
      "exclus": 6380,
      "##eph": 6381,
      "universities": 6382,
      "##idi": 6383,
      "##ologists": 6384,
      "treaty": 6385,
      "jimmy": 6386,
      "innov": 6387,
      "offices": 6388,
      "weekend": 6389,
      "specifically": 6390,
      "ric": 6391,
      "settle": 6392,
      "southwest": 6393,
      "##ugal": 6394,
      "underst": 6395,
      "cathedral": 6396,
      "##ante": 6397,
      "##ugged": 6398,
      "causes": 6399,
      "animated": 6400,
      "device": 6401,
      "phill": 6402,
      "##isms": 6403,
      "destr": 6404,
      "bureau": 6405,
      "##dd": 6406,
      "actresses": 6407,
      "plane": 6408,
      "enfor": 6409,
      "stands": 6410,
      "camera": 6411,
      "imposs": 6412,
      "familiar": 6413,
      "asks": 6414,
      "whispered": 6415,
      "coordin": 6416,
      "##bu": 6417,
      "##ooth": 6418,
      "struck": 6419,
      "afternoon": 6420,
      "rising": 6421,
      "alg": 6422,
      "hunter": 6423,
      "dear": 6424,
      "briefly": 6425,
      "closely": 6426,
      "frag": 6427,
      "##ghan": 6428,
      "explos": 6429,
      "##ardo": 6430,
      "maur": 6431,
      "fired": 6432,
      "nom": 6433,
      "ug": 6434,
      "copies": 6435,
      "##erto": 6436,
      "69": 6437,
      "representing": 6438,
      "advantage": 6439,
      "##icide": 6440,
      "besides": 6441,
      "proced": 6442,
      "giant": 6443,
      "till": 6444,
      "barn": 6445,
      "walker": 6446,
      "##box": 6447,
      "refuge": 6448,
      "infr": 6449,
      "##eston": 6450,
      "session": 6451,
      "occas": 6452,
      "##agen": 6453,
      "##agues": 6454,
      "qualified": 6455,
      "##ambig": 6456,
      "negoti": 6457,
      "vamp": 6458,
      "bachelor": 6459,
      "concerned": 6460,
      "##ublin": 6461,
      "##gie": 6462,
      "context": 6463,
      "inhabit": 6464,
      "missed": 6465,
      "thousands": 6466,
      "scholar": 6467,
      "dies": 6468,
      "cash": 6469,
      "applications": 6470,
      "threw": 6471,
      "smart": 6472,
      "managers": 6473,
      "translated": 6474,
      "##aux": 6475,
      "funding": 6476,
      "##orro": 6477,
      "##uces": 6478,
      "##rete": 6479,
      "##acle": 6480,
      "vel": 6481,
      "lanc": 6482,
      "objects": 6483,
      "fisher": 6484,
      "chapel": 6485,
      "johnny": 6486,
      "ceremony": 6487,
      "##otte": 6488,
      "##iere": 6489,
      "leaned": 6490,
      "##lusion": 6491,
      "pill": 6492,
      "horror": 6493,
      "morgan": 6494,
      "hamp": 6495,
      "protein": 6496,
      "##aved": 6497,
      "##ken": 6498,
      "derived": 6499,
      "beneath": 6500,
      "unless": 6501,
      "##ieved": 6502,
      "##roit": 6503,
      "parall": 6504,
      "shoulders": 6505,
      "##abil": 6506,
      "##ibr": 6507,
      "aren": 6508,
      "investment": 6509,
      "sty": 6510,
      "lying": 6511,
      "satell": 6512,
      "entitled": 6513,
      "employed": 6514,
      "twin": 6515,
      "adap": 6516,
      "margaret": 6517,
      "mond": 6518,
      "spell": 6519,
      "##hors": 6520,
      "##otted": 6521,
      "tied": 6522,
      "covid": 6523,
      "worldwide": 6524,
      "leads": 6525,
      "##ippi": 6526,
      "##ikh": 6527,
      "injured": 6528,
      "overs": 6529,
      "expressed": 6530,
      "diego": 6531,
      "vinc": 6532,
      "employees": 6533,
      "expos": 6534,
      "views": 6535,
      "branc": 6536,
      "butter": 6537,
      "promise": 6538,
      "lank": 6539,
      "scientists": 6540,
      "converted": 6541,
      "austrian": 6542,
      "berg": 6543,
      "nurs": 6544,
      "##oen": 6545,
      "assault": 6546,
      "prix": 6547,
      "extensive": 6548,
      "dall": 6549,
      "opposed": 6550,
      "assess": 6551,
      "##ecution": 6552,
      "shit": 6553,
      "hud": 6554,
      "lists": 6555,
      "bun": 6556,
      "deleg": 6557,
      "file": 6558,
      "breaking": 6559,
      "##ologies": 6560,
      "##olished": 6561,
      "##ching": 6562,
      "connecticut": 6563,
      "taiwan": 6564,
      "glanced": 6565,
      "attached": 6566,
      "buddh": 6567,
      "helping": 6568,
      "##elli": 6569,
      "frederick": 6570,
      "luke": 6571,
      "fried": 6572,
      "values": 6573,
      "soundtr": 6574,
      "sisters": 6575,
      "edited": 6576,
      "select": 6577,
      "wondered": 6578,
      "##ucks": 6579,
      "brick": 6580,
      "pig": 6581,
      "##lying": 6582,
      "##ompl": 6583,
      "somewhere": 6584,
      "##sel": 6585,
      "institution": 6586,
      "profession": 6587,
      "femin": 6588,
      "##uma": 6589,
      "##aro": 6590,
      "lux": 6591,
      "##oslav": 6592,
      "##197": 6593,
      "##cles": 6594,
      "decades": 6595,
      "##hetic": 6596,
      "canal": 6597,
      "##mers": 6598,
      "ted": 6599,
      "96": 6600,
      "worse": 6601,
      "1909": 6602,
      "disambig": 6603,
      "##night": 6604,
      "cole": 6605,
      "expedition": 6606,
      "contrast": 6607,
      "##wick": 6608,
      "illeg": 6609,
      "bund": 6610,
      "argentina": 6611,
      "seek": 6612,
      "##oom": 6613,
      "nel": 6614,
      "##ifications": 6615,
      "##atus": 6616,
      "experienced": 6617,
      "medium": 6618,
      "##cel": 6619,
      "kelly": 6620,
      "benn": 6621,
      "amend": 6622,
      "cord": 6623,
      "discovery": 6624,
      "##present": 6625,
      "rav": 6626,
      "distinguished": 6627,
      "ancest": 6628,
      "diamond": 6629,
      "tort": 6630,
      "05": 6631,
      "horses": 6632,
      "disambiguation": 6633,
      "forever": 6634,
      "##stream": 6635,
      "persons": 6636,
      "alco": 6637,
      "##33": 6638,
      "consisted": 6639,
      "detroit": 6640,
      "colour": 6641,
      "16th": 6642,
      "annivers": 6643,
      "rival": 6644,
      "scenes": 6645,
      "1905": 6646,
      "crossed": 6647,
      "purchase": 6648,
      "fantasy": 6649,
      "louisiana": 6650,
      "ukraine": 6651,
      "belgium": 6652,
      "inters": 6653,
      "prefect": 6654,
      "electoral": 6655,
      "approp": 6656,
      "1906": 6657,
      "stew": 6658,
      "amateur": 6659,
      "torn": 6660,
      "harris": 6661,
      "furn": 6662,
      "##burn": 6663,
      "indigen": 6664,
      "combination": 6665,
      "98": 6666,
      "enr": 6667,
      "registered": 6668,
      "admitted": 6669,
      "dismiss": 6670,
      "##uri": 6671,
      "cot": 6672,
      "gabri": 6673,
      "wels": 6674,
      "##estab": 6675,
      "proved": 6676,
      "##rees": 6677,
      "blank": 6678,
      "accompl": 6679,
      "alexand": 6680,
      "stup": 6681,
      "angry": 6682,
      "anger": 6683,
      "franch": 6684,
      "michel": 6685,
      "1907": 6686,
      "invasion": 6687,
      "dates": 6688,
      "photograph": 6689,
      "##opter": 6690,
      "hydr": 6691,
      "equival": 6692,
      "lifted": 6693,
      "usual": 6694,
      "palest": 6695,
      "changing": 6696,
      "##iner": 6697,
      "fixed": 6698,
      "roc": 6699,
      "##eding": 6700,
      "fool": 6701,
      "choose": 6702,
      "lod": 6703,
      "caval": 6704,
      "##iami": 6705,
      "##eton": 6706,
      "##inces": 6707,
      "tunnel": 6708,
      "finishing": 6709,
      "parks": 6710,
      "residence": 6711,
      "montreal": 6712,
      "##while": 6713,
      "courts": 6714,
      "bent": 6715,
      "opinion": 6716,
      "pocket": 6717,
      "##atherine": 6718,
      "funds": 6719,
      "hawai": 6720,
      "responsibility": 6721,
      "unus": 6722,
      "86": 6723,
      "engaged": 6724,
      "##ras": 6725,
      "mississippi": 6726,
      "##acent": 6727,
      "mack": 6728,
      "6th": 6729,
      "puerto": 6730,
      "medieval": 6731,
      "anniversary": 6732,
      "##utt": 6733,
      "ukrainian": 6734,
      "param": 6735,
      "extremely": 6736,
      "##48": 6737,
      "acid": 6738,
      "convent": 6739,
      "factor": 6740,
      "licens": 6741,
      "moore": 6742,
      "hired": 6743,
      "gam": 6744,
      "moments": 6745,
      "##asm": 6746,
      "##odox": 6747,
      "swimming": 6748,
      "phen": 6749,
      "grown": 6750,
      "barely": 6751,
      "87": 6752,
      "archive": 6753,
      "##alk": 6754,
      "##zh": 6755,
      "##35": 6756,
      "maintained": 6757,
      "parliamentary": 6758,
      "lon": 6759,
      "donald": 6760,
      "rio": 6761,
      "brew": 6762,
      "ss": 6763,
      "colomb": 6764,
      "outstanding": 6765,
      "socorro": 6766,
      "##apy": 6767,
      "legacy": 6768,
      "miami": 6769,
      "##ishes": 6770,
      "alleged": 6771,
      "gaze": 6772,
      "diet": 6773,
      "photo": 6774,
      "##kel": 6775,
      "painted": 6776,
      "ern": 6777,
      "transition": 6778,
      "indigenous": 6779,
      "eu": 6780,
      "##anne": 6781,
      "influenced": 6782,
      "push": 6783,
      "pitts": 6784,
      "formula": 6785,
      "friendly": 6786,
      "##uits": 6787,
      "feelings": 6788,
      "successfully": 6789,
      "signs": 6790,
      "engines": 6791,
      "79": 6792,
      "isa": 6793,
      "##oked": 6794,
      "occurs": 6795,
      "deploy": 6796,
      "##ortion": 6797,
      "##rell": 6798,
      "impossible": 6799,
      "ian": 6800,
      "assumed": 6801,
      "consecut": 6802,
      "veget": 6803,
      "aviation": 6804,
      "synd": 6805,
      "carbon": 6806,
      "goods": 6807,
      "stomach": 6808,
      "ris": 6809,
      "finance": 6810,
      "agree": 6811,
      "audio": 6812,
      "tiny": 6813,
      "bin": 6814,
      "mail": 6815,
      "passes": 6816,
      "##mal": 6817,
      "tea": 6818,
      "rescue": 6819,
      "truly": 6820,
      "welsh": 6821,
      "01": 6822,
      "rhyth": 6823,
      "hyd": 6824,
      "honour": 6825,
      "isol": 6826,
      "bands": 6827,
      "tip": 6828,
      "##eals": 6829,
      "denmark": 6830,
      "noise": 6831,
      "dvd": 6832,
      "monument": 6833,
      "##ello": 6834,
      "##bar": 6835,
      "metro": 6836,
      "subd": 6837,
      "alfred": 6838,
      "renew": 6839,
      "##ui": 6840,
      "underground": 6841,
      "joining": 6842,
      "improve": 6843,
      "willing": 6844,
      "physics": 6845,
      "dak": 6846,
      "assass": 6847,
      "spoken": 6848,
      "##life": 6849,
      "hollywood": 6850,
      "##stan": 6851,
      "tie": 6852,
      "rig": 6853,
      "shore": 6854,
      "cinema": 6855,
      "facing": 6856,
      "crossing": 6857,
      "mud": 6858,
      "1904": 6859,
      "refers": 6860,
      "approached": 6861,
      "##ading": 6862,
      "##cing": 6863,
      "documents": 6864,
      "bruce": 6865,
      "mt": 6866,
      "##western": 6867,
      "persp": 6868,
      "portugal": 6869,
      "##ven": 6870,
      "affected": 6871,
      "sighed": 6872,
      "##dale": 6873,
      "creative": 6874,
      "##sex": 6875,
      "classification": 6876,
      "##inder": 6877,
      "7th": 6878,
      "eval": 6879,
      "edin": 6880,
      "mining": 6881,
      "inaug": 6882,
      "paus": 6883,
      "putting": 6884,
      "extension": 6885,
      "dreams": 6886,
      "##esc": 6887,
      "plain": 6888,
      "drove": 6889,
      "lawrence": 6890,
      "rolled": 6891,
      "89": 6892,
      "symph": 6893,
      "hook": 6894,
      "raw": 6895,
      "guid": 6896,
      "surrounded": 6897,
      "faces": 6898,
      "grounds": 6899,
      "handle": 6900,
      "dressed": 6901,
      "austin": 6902,
      "atm": 6903,
      "sque": 6904,
      "committed": 6905,
      "pitch": 6906,
      "##cription": 6907,
      "wedding": 6908,
      "economics": 6909,
      "gear": 6910,
      "colspan": 6911,
      "hunting": 6912,
      "saved": 6913,
      "gender": 6914,
      "horiz": 6915,
      "##olve": 6916,
      "delivered": 6917,
      "coc": 6918,
      "typical": 6919,
      "craw": 6920,
      "##do": 6921,
      "massive": 6922,
      "##what": 6923,
      "constituency": 6924,
      "ministers": 6925,
      "contributed": 6926,
      "karl": 6927,
      "producing": 6928,
      "incorporated": 6929,
      "hoped": 6930,
      "tact": 6931,
      "hem": 6932,
      "delay": 6933,
      "##ocol": 6934,
      "assistance": 6935,
      "62": 6936,
      "##din": 6937,
      "##ando": 6938,
      "adventure": 6939,
      "remix": 6940,
      "odd": 6941,
      "maintain": 6942,
      "cler": 6943,
      "strate": 6944,
      "pup": 6945,
      "nan": 6946,
      "bedroom": 6947,
      "##icit": 6948,
      "drawing": 6949,
      "runner": 6950,
      "prayer": 6951,
      "gill": 6952,
      "enh": 6953,
      "forget": 6954,
      "##omer": 6955,
      "sugar": 6956,
      "capable": 6957,
      "dublin": 6958,
      "woods": 6959,
      "##47": 6960,
      "crazy": 6961,
      "understood": 6962,
      "##oking": 6963,
      "false": 6964,
      "alice": 6965,
      "superior": 6966,
      "gm": 6967,
      "##ipe": 6968,
      "##aj": 6969,
      "##agh": 6970,
      "winds": 6971,
      "defensive": 6972,
      "consecutive": 6973,
      "flora": 6974,
      "rit": 6975,
      "resigned": 6976,
      "##encing": 6977,
      "##kshire": 6978,
      "strategy": 6979,
      "invent": 6980,
      "concluded": 6981,
      "meat": 6982,
      "nev": 6983,
      "##asp": 6984,
      "##arn": 6985,
      "##etime": 6986,
      "engineers": 6987,
      "afghan": 6988,
      "solar": 6989,
      "charged": 6990,
      "cul": 6991,
      "vik": 6992,
      "hir": 6993,
      "##ucture": 6994,
      "1903": 6995,
      "gift": 6996,
      "foss": 6997,
      "##49": 6998,
      "interests": 6999,
      "divisions": 7000,
      "shah": 7001,
      "palm": 7002,
      "organisation": 7003,
      "argued": 7004,
      "users": 7005,
      "03": 7006,
      "inqu": 7007,
      "victims": 7008,
      "covering": 7009,
      "##imb": 7010,
      "switch": 7011,
      "throw": 7012,
      "johann": 7013,
      "luck": 7014,
      "merged": 7015,
      "##ensions": 7016,
      "##umbled": 7017,
      "aside": 7018,
      "expert": 7019,
      "smell": 7020,
      "##entially": 7021,
      "depos": 7022,
      "biggest": 7023,
      "survived": 7024,
      "sequence": 7025,
      "##angel": 7026,
      "edinburgh": 7027,
      "downtown": 7028,
      "curt": 7029,
      "recre": 7030,
      "circumst": 7031,
      "##atically": 7032,
      "submar": 7033,
      "1901": 7034,
      "liked": 7035,
      "trophy": 7036,
      "romantic": 7037,
      "midfield": 7038,
      "songwriter": 7039,
      "emigr": 7040,
      "accur": 7041,
      "##iya": 7042,
      "conce": 7043,
      "raise": 7044,
      "childhood": 7045,
      "##crib": 7046,
      "vul": 7047,
      "productions": 7048,
      "touchdown": 7049,
      "staring": 7050,
      "alleg": 7051,
      "techniques": 7052,
      "associate": 7053,
      "hab": 7054,
      "##ladesh": 7055,
      "##rane": 7056,
      "marry": 7057,
      "peters": 7058,
      "christopher": 7059,
      "testing": 7060,
      "capture": 7061,
      "cards": 7062,
      "gur": 7063,
      "dh": 7064,
      "##issance": 7065,
      "backing": 7066,
      "##po": 7067,
      "insurance": 7068,
      "hungary": 7069,
      "bangladesh": 7070,
      "authors": 7071,
      "determin": 7072,
      "improved": 7073,
      "##itely": 7074,
      "##oft": 7075,
      "relax": 7076,
      "##enh": 7077,
      "qualifying": 7078,
      "orthodox": 7079,
      "discip": 7080,
      "tamil": 7081,
      "inhabitants": 7082,
      "soil": 7083,
      "dece": 7084,
      "mak": 7085,
      "arranged": 7086,
      "noble": 7087,
      "prisoners": 7088,
      "160": 7089,
      "gymn": 7090,
      "judges": 7091,
      "##ront": 7092,
      "##emen": 7093,
      "mars": 7094,
      "1902": 7095,
      "thunder": 7096,
      "promote": 7097,
      "passage": 7098,
      "solution": 7099,
      "nas": 7100,
      "patient": 7101,
      "##know": 7102,
      "gest": 7103,
      "06": 7104,
      "##ishment": 7105,
      "##46": 7106,
      "beer": 7107,
      "disestab": 7108,
      "venez": 7109,
      "honest": 7110,
      "ages": 7111,
      "pierre": 7112,
      "option": 7113,
      "regarded": 7114,
      "indonesia": 7115,
      "coat": 7116,
      "micro": 7117,
      "##iac": 7118,
      "stores": 7119,
      "russell": 7120,
      "overl": 7121,
      "installed": 7122,
      "rebu": 7123,
      "wounded": 7124,
      "innoc": 7125,
      "collections": 7126,
      "manufacturing": 7127,
      "jake": 7128,
      "atlanta": 7129,
      "tries": 7130,
      "##iller": 7131,
      "kan": 7132,
      "ja": 7133,
      "involving": 7134,
      "rolling": 7135,
      "soundtrack": 7136,
      "enterpr": 7137,
      "diagn": 7138,
      "adjacent": 7139,
      "arrival": 7140,
      "somewhat": 7141,
      "##ieties": 7142,
      "leaf": 7143,
      "offering": 7144,
      "junction": 7145,
      "parad": 7146,
      "datab": 7147,
      "##hy": 7148,
      "analy": 7149,
      "damn": 7150,
      "saints": 7151,
      "##pm": 7152,
      "##aman": 7153,
      "acknow": 7154,
      "##veland": 7155,
      "ranking": 7156,
      "suffering": 7157,
      "##ders": 7158,
      "nut": 7159,
      "arn": 7160,
      "##aughters": 7161,
      "93": 7162,
      "dna": 7163,
      "responded": 7164,
      "anch": 7165,
      "mirror": 7166,
      "gary": 7167,
      "magazines": 7168,
      "tak": 7169,
      "commit": 7170,
      "parent": 7171,
      "##oria": 7172,
      "judg": 7173,
      "arkansas": 7174,
      "copy": 7175,
      "##nat": 7176,
      "cricketers": 7177,
      "malaysia": 7178,
      "##orph": 7179,
      "smoke": 7180,
      "offensive": 7181,
      "storage": 7182,
      "lion": 7183,
      "somehow": 7184,
      "costs": 7185,
      "##oyd": 7186,
      "denn": 7187,
      "user": 7188,
      "jar": 7189,
      "passengers": 7190,
      "singh": 7191,
      "cleveland": 7192,
      "##oust": 7193,
      "determine": 7194,
      "tob": 7195,
      "ruled": 7196,
      "yor": 7197,
      "flesh": 7198,
      "08": 7199,
      "guil": 7200,
      "##rum": 7201,
      "genes": 7202,
      "##ycl": 7203,
      "##iki": 7204,
      "desper": 7205,
      "returns": 7206,
      "reduce": 7207,
      "worst": 7208,
      "lakes": 7209,
      "hate": 7210,
      "170": 7211,
      "aar": 7212,
      "##pass": 7213,
      "1930s": 7214,
      "stating": 7215,
      "poems": 7216,
      "eleven": 7217,
      "monitor": 7218,
      "scor": 7219,
      "##enance": 7220,
      "lud": 7221,
      "gross": 7222,
      "cc": 7223,
      "charges": 7224,
      "penins": 7225,
      "substit": 7226,
      "##liest": 7227,
      "hunt": 7228,
      "07": 7229,
      "accused": 7230,
      "voted": 7231,
      "##etta": 7232,
      "matters": 7233,
      "tig": 7234,
      "interesting": 7235,
      "belt": 7236,
      "##ogs": 7237,
      "##aham": 7238,
      "substant": 7239,
      "panel": 7240,
      "intellect": 7241,
      "counties": 7242,
      "retail": 7243,
      "##heas": 7244,
      "enl": 7245,
      "##ographical": 7246,
      "socialist": 7247,
      "##bish": 7248,
      "##ads": 7249,
      "balance": 7250,
      "endemic": 7251,
      "##issions": 7252,
      "surre": 7253,
      "kath": 7254,
      "##196": 7255,
      "pse": 7256,
      "rush": 7257,
      "decade": 7258,
      "fishing": 7259,
      "##emble": 7260,
      "##uous": 7261,
      "83": 7262,
      "rice": 7263,
      "##roc": 7264,
      "divor": 7265,
      "passion": 7266,
      "neut": 7267,
      "fallen": 7268,
      "##ture": 7269,
      "pond": 7270,
      "##yard": 7271,
      "earn": 7272,
      "cs": 7273,
      "sections": 7274,
      "##aws": 7275,
      "chand": 7276,
      "zero": 7277,
      "belgian": 7278,
      "##orters": 7279,
      "smooth": 7280,
      "temporary": 7281,
      "##ucing": 7282,
      "carter": 7283,
      "hundreds": 7284,
      "##alia": 7285,
      "fasc": 7286,
      "ng": 7287,
      "##uster": 7288,
      "rifle": 7289,
      "monk": 7290,
      "burning": 7291,
      "ridge": 7292,
      "shan": 7293,
      "parallel": 7294,
      "pic": 7295,
      "marshall": 7296,
      "##lon": 7297,
      "drugs": 7298,
      "cod": 7299,
      "mathematics": 7300,
      "gardens": 7301,
      "measures": 7302,
      "benefit": 7303,
      "secure": 7304,
      "factors": 7305,
      "stress": 7306,
      "mason": 7307,
      "##ais": 7308,
      "sees": 7309,
      "caf": 7310,
      "seattle": 7311,
      "driven": 7312,
      "consisting": 7313,
      "600": 7314,
      "##fast": 7315,
      "danger": 7316,
      "daughters": 7317,
      "cloud": 7318,
      "wore": 7319,
      "adapted": 7320,
      "battles": 7321,
      "##udi": 7322,
      "##ayan": 7323,
      "manus": 7324,
      "undert": 7325,
      "##bal": 7326,
      "pm": 7327,
      "##chi": 7328,
      "monaster": 7329,
      "intent": 7330,
      "09": 7331,
      "displ": 7332,
      "tack": 7333,
      "tired": 7334,
      "confused": 7335,
      "##pson": 7336,
      "describes": 7337,
      "dy": 7338,
      "helen": 7339,
      "masters": 7340,
      "coastal": 7341,
      "neighbour": 7342,
      "bind": 7343,
      "anymore": 7344,
      "pittsburgh": 7345,
      "##iti": 7346,
      "separated": 7347,
      "1898": 7348,
      "rocks": 7349,
      "##incorporated": 7350,
      "newspapers": 7351,
      "membership": 7352,
      "ensure": 7353,
      "diocese": 7354,
      "nord": 7355,
      "damaged": 7356,
      "sanct": 7357,
      "##cular": 7358,
      "61": 7359,
      "fault": 7360,
      "disappeared": 7361,
      "purposes": 7362,
      "pregn": 7363,
      "birthday": 7364,
      "stupid": 7365,
      "wire": 7366,
      "utah": 7367,
      "finland": 7368,
      "atmosp": 7369,
      "micros": 7370,
      "convinc": 7371,
      "slam": 7372,
      "meanwhile": 7373,
      "chick": 7374,
      "wes": 7375,
      "drivers": 7376,
      "compilation": 7377,
      "gods": 7378,
      "fo": 7379,
      "pd": 7380,
      "distributed": 7381,
      "forb": 7382,
      "collaboration": 7383,
      "grandfather": 7384,
      "hob": 7385,
      "yug": 7386,
      "##icial": 7387,
      "kos": 7388,
      "repair": 7389,
      "criticism": 7390,
      "tub": 7391,
      "rever": 7392,
      "construct": 7393,
      "weren": 7394,
      "sole": 7395,
      "colony": 7396,
      "##illing": 7397,
      "##going": 7398,
      "stages": 7399,
      "random": 7400,
      "favorite": 7401,
      "stairs": 7402,
      "courses": 7403,
      "contributions": 7404,
      "##borough": 7405,
      "pseud": 7406,
      "##ailand": 7407,
      "enjoyed": 7408,
      "waste": 7409,
      "liga": 7410,
      "trem": 7411,
      "confront": 7412,
      "severe": 7413,
      "lung": 7414,
      "operate": 7415,
      "infrastr": 7416,
      "##ials": 7417,
      "unincorporated": 7418,
      "disney": 7419,
      "branches": 7420,
      "kilomet": 7421,
      "suicide": 7422,
      "tribe": 7423,
      "##omy": 7424,
      "##tha": 7425,
      "##itals": 7426,
      "tools": 7427,
      "compete": 7428,
      "hoping": 7429,
      "busy": 7430,
      "120": 7431,
      "##orted": 7432,
      "##estyle": 7433,
      "instruments": 7434,
      "bio": 7435,
      "##zer": 7436,
      "thailand": 7437,
      "defunct": 7438,
      "##eler": 7439,
      "andy": 7440,
      "congreg": 7441,
      "ya": 7442,
      "apple": 7443,
      "sult": 7444,
      "stewart": 7445,
      "##olo": 7446,
      "##ti": 7447,
      "subjects": 7448,
      "##ogy": 7449,
      "carefully": 7450,
      "250": 7451,
      "math": 7452,
      "dating": 7453,
      "ambassador": 7454,
      "refere": 7455,
      "manif": 7456,
      "rhythm": 7457,
      "concrete": 7458,
      "entering": 7459,
      "treated": 7460,
      "##ocated": 7461,
      "kennedy": 7462,
      "shir": 7463,
      "hurrican": 7464,
      "revival": 7465,
      "##cia": 7466,
      "##attered": 7467,
      "recipients": 7468,
      "grave": 7469,
      "##43": 7470,
      "experiences": 7471,
      "violin": 7472,
      "tongue": 7473,
      "movements": 7474,
      "movies": 7475,
      "colleges": 7476,
      "residential": 7477,
      "lac": 7478,
      "serbian": 7479,
      "fifteen": 7480,
      "pron": 7481,
      "##pur": 7482,
      "##ilst": 7483,
      "interrupt": 7484,
      "linked": 7485,
      "tech": 7486,
      "producers": 7487,
      "barry": 7488,
      "nelson": 7489,
      "degrees": 7490,
      "decide": 7491,
      "guine": 7492,
      "equivalent": 7493,
      "designer": 7494,
      "pel": 7495,
      "og": 7496,
      "campbell": 7497,
      "commissioner": 7498,
      "##ontin": 7499,
      "pyr": 7500,
      "1899": 7501,
      "aspects": 7502,
      "dee": 7503,
      "norman": 7504,
      "gw": 7505,
      "bog": 7506,
      "##chell": 7507,
      "thompson": 7508,
      "personality": 7509,
      "baltim": 7510,
      "jonathan": 7511,
      "mode": 7512,
      "##imate": 7513,
      "fifty": 7514,
      "extend": 7515,
      "##gal": 7516,
      "laboratory": 7517,
      "rar": 7518,
      "12th": 7519,
      "painters": 7520,
      "gulf": 7521,
      "13th": 7522,
      "eating": 7523,
      "replace": 7524,
      "volley": 7525,
      "honorary": 7526,
      "accompanied": 7527,
      "worried": 7528,
      "landscape": 7529,
      "baltimore": 7530,
      "##apolis": 7531,
      "praised": 7532,
      "ninet": 7533,
      "ottoman": 7534,
      "dallas": 7535,
      "pri": 7536,
      "72": 7537,
      "honey": 7538,
      "##boards": 7539,
      "admiral": 7540,
      "##igation": 7541,
      "10th": 7542,
      "terminal": 7543,
      "friday": 7544,
      "ceo": 7545,
      "normally": 7546,
      "chanc": 7547,
      "adams": 7548,
      "##utation": 7549,
      "##ommod": 7550,
      "afterwards": 7551,
      "carlos": 7552,
      "doubles": 7553,
      "verse": 7554,
      "800": 7555,
      "##usalem": 7556,
      "ivan": 7557,
      "##oda": 7558,
      "##anz": 7559,
      "seb": 7560,
      "businesses": 7561,
      "disappoint": 7562,
      "scheme": 7563,
      "duties": 7564,
      "##oni": 7565,
      "cousin": 7566,
      "devices": 7567,
      "assign": 7568,
      "warning": 7569,
      "pulling": 7570,
      "disord": 7571,
      "phoen": 7572,
      "flew": 7573,
      "tap": 7574,
      "##verty": 7575,
      "gast": 7576,
      "imagine": 7577,
      "artistic": 7578,
      "crash": 7579,
      "continuing": 7580,
      "##lev": 7581,
      "resolution": 7582,
      "chen": 7583,
      "romanian": 7584,
      "hend": 7585,
      "rejected": 7586,
      "romania": 7587,
      "municipalities": 7588,
      "whilst": 7589,
      "inch": 7590,
      "erect": 7591,
      "accommod": 7592,
      "##ancing": 7593,
      "##itable": 7594,
      "##coming": 7595,
      "vin": 7596,
      "jobs": 7597,
      "marketing": 7598,
      "habitat": 7599,
      "designs": 7600,
      "venezuel": 7601,
      "clothing": 7602,
      "##aks": 7603,
      "riding": 7604,
      "regularly": 7605,
      "8th": 7606,
      "routes": 7607,
      "##ashi": 7608,
      "bernard": 7609,
      "1890": 7610,
      "poem": 7611,
      "satellite": 7612,
      "absor": 7613,
      "rating": 7614,
      "nickn": 7615,
      "toy": 7616,
      "jerusalem": 7617,
      "##44": 7618,
      "closing": 7619,
      "##low": 7620,
      "##heastern": 7621,
      "relative": 7622,
      "practices": 7623,
      "fate": 7624,
      "vas": 7625,
      "monarch": 7626,
      "additionally": 7627,
      "cel": 7628,
      "visible": 7629,
      "pressed": 7630,
      "perc": 7631,
      "morris": 7632,
      "franklin": 7633,
      "##organ": 7634,
      "yout": 7635,
      "threatened": 7636,
      "##cs": 7637,
      "graham": 7638,
      "chor": 7639,
      "poverty": 7640,
      "##aring": 7641,
      "nash": 7642,
      "##leton": 7643,
      "benj": 7644,
      "landed": 7645,
      "deck": 7646,
      "wag": 7647,
      "1896": 7648,
      "liquid": 7649,
      "angl": 7650,
      "forty": 7651,
      "stanley": 7652,
      "1895": 7653,
      "##rick": 7654,
      "discography": 7655,
      "##face": 7656,
      "concerns": 7657,
      "clan": 7658,
      "participate": 7659,
      "baker": 7660,
      "sustain": 7661,
      "agents": 7662,
      "##aware": 7663,
      "##gow": 7664,
      "margin": 7665,
      "revolutionary": 7666,
      "arrest": 7667,
      "juris": 7668,
      "mood": 7669,
      "chase": 7670,
      "leban": 7671,
      "##ctic": 7672,
      "surrender": 7673,
      "jumped": 7674,
      "tests": 7675,
      "##ovo": 7676,
      "realize": 7677,
      "photography": 7678,
      "clinical": 7679,
      "amongst": 7680,
      "15th": 7681,
      "premiered": 7682,
      "hub": 7683,
      "speaker": 7684,
      "struggle": 7685,
      "wright": 7686,
      "infrastructure": 7687,
      "orle": 7688,
      "prost": 7689,
      "studying": 7690,
      "bone": 7691,
      "##bow": 7692,
      "vienna": 7693,
      "##intend": 7694,
      "##mat": 7695,
      "1897": 7696,
      "##icing": 7697,
      "differences": 7698,
      "outer": 7699,
      "##tra": 7700,
      "danny": 7701,
      "destruction": 7702,
      "##yers": 7703,
      "gathered": 7704,
      "definition": 7705,
      "##aceae": 7706,
      "uss": 7707,
      "dw": 7708,
      "composers": 7709,
      "breast": 7710,
      "glas": 7711,
      "kay": 7712,
      "useful": 7713,
      "resign": 7714,
      "pound": 7715,
      "memories": 7716,
      "lunch": 7717,
      "comed": 7718,
      "wol": 7719,
      "ears": 7720,
      "finnish": 7721,
      "mystery": 7722,
      "sib": 7723,
      "scand": 7724,
      "pleasure": 7725,
      "##aza": 7726,
      "domain": 7727,
      "voices": 7728,
      "crystal": 7729,
      "##ecess": 7730,
      "reun": 7731,
      "adding": 7732,
      "angels": 7733,
      "dancing": 7734,
      "survive": 7735,
      "welcome": 7736,
      "significantly": 7737,
      "##itated": 7738,
      "prohib": 7739,
      "christians": 7740,
      "license": 7741,
      "##38": 7742,
      "##aa": 7743,
      "gosp": 7744,
      "franchise": 7745,
      "stal": 7746,
      "##aze": 7747,
      "vast": 7748,
      "earliest": 7749,
      "forming": 7750,
      "extreme": 7751,
      "heb": 7752,
      "imprison": 7753,
      "##iop": 7754,
      "compre": 7755,
      "##wall": 7756,
      "meters": 7757,
      "devil": 7758,
      "stu": 7759,
      "achieve": 7760,
      "ski": 7761,
      "paraly": 7762,
      "affect": 7763,
      "obvious": 7764,
      "depression": 7765,
      "##ario": 7766,
      "alien": 7767,
      "cum": 7768,
      "##iveness": 7769,
      "visiting": 7770,
      "##oves": 7771,
      "##uki": 7772,
      "##ashing": 7773,
      "##99": 7774,
      "##point": 7775,
      "muhammad": 7776,
      "occasionally": 7777,
      "pont": 7778,
      "museums": 7779,
      "##alf": 7780,
      "bears": 7781,
      "eug": 7782,
      "ml": 7783,
      "orleans": 7784,
      "journalists": 7785,
      "##fortun": 7786,
      "kum": 7787,
      "lean": 7788,
      "murray": 7789,
      "##ounced": 7790,
      "advice": 7791,
      "mounted": 7792,
      "eighth": 7793,
      "nazi": 7794,
      "##anian": 7795,
      "mps": 7796,
      "hyper": 7797,
      "corporate": 7798,
      "portrait": 7799,
      "intention": 7800,
      "circumstances": 7801,
      "chess": 7802,
      "depth": 7803,
      "carib": 7804,
      "executed": 7805,
      "policies": 7806,
      "notably": 7807,
      "shopping": 7808,
      "14th": 7809,
      "##net": 7810,
      "dogs": 7811,
      "preced": 7812,
      "trick": 7813,
      "##esents": 7814,
      "prompt": 7815,
      "roughly": 7816,
      "phr": 7817,
      "fed": 7818,
      "##inian": 7819,
      "yugoslav": 7820,
      "charity": 7821,
      "pharm": 7822,
      "releg": 7823,
      "9th": 7824,
      "surgery": 7825,
      "shift": 7826,
      "videos": 7827,
      "symp": 7828,
      "##ige": 7829,
      "represents": 7830,
      "##ties": 7831,
      "brooklyn": 7832,
      "##iology": 7833,
      "bridges": 7834,
      "argentine": 7835,
      "essential": 7836,
      "cavalry": 7837,
      "gently": 7838,
      "robinson": 7839,
      "quietly": 7840,
      "casual": 7841,
      "hampshire": 7842,
      "legislation": 7843,
      "broadway": 7844,
      "springs": 7845,
      "kin": 7846,
      "vincent": 7847,
      "battery": 7848,
      "##issa": 7849,
      "stuck": 7850,
      "creature": 7851,
      "seeking": 7852,
      "starred": 7853,
      "##41": 7854,
      "incumb": 7855,
      "promised": 7856,
      "employment": 7857,
      "visitors": 7858,
      "regulations": 7859,
      "burned": 7860,
      "electrical": 7861,
      "bold": 7862,
      "lucky": 7863,
      "instance": 7864,
      "locked": 7865,
      "requires": 7866,
      "existed": 7867,
      "frequency": 7868,
      "pole": 7869,
      "gif": 7870,
      "##mingham": 7871,
      "##ighters": 7872,
      "archbish": 7873,
      "heading": 7874,
      "ownership": 7875,
      "guilty": 7876,
      "##itr": 7877,
      "cable": 7878,
      "renov": 7879,
      "adults": 7880,
      "168": 7881,
      "benjamin": 7882,
      "wre": 7883,
      "alcohol": 7884,
      "bend": 7885,
      "feels": 7886,
      "accounts": 7887,
      "prote": 7888,
      "##ruption": 7889,
      "##enses": 7890,
      "kun": 7891,
      "merchant": 7892,
      "gle": 7893,
      "hann": 7894,
      "1893": 7895,
      "goth": 7896,
      "kor": 7897,
      "editions": 7898,
      "overse": 7899,
      "consp": 7900,
      "marks": 7901,
      "helic": 7902,
      "nobody": 7903,
      "bert": 7904,
      "waves": 7905,
      "maine": 7906,
      "debate": 7907,
      "detail": 7908,
      "warren": 7909,
      "oliver": 7910,
      "divine": 7911,
      "mini": 7912,
      "##cha": 7913,
      "knights": 7914,
      "##36": 7915,
      "honors": 7916,
      "talked": 7917,
      "processes": 7918,
      "##place": 7919,
      "detective": 7920,
      "##aig": 7921,
      "##ml": 7922,
      "grim": 7923,
      "enth": 7924,
      "peninsula": 7925,
      "unfortun": 7926,
      "1889": 7927,
      "networks": 7928,
      "coalition": 7929,
      "##using": 7930,
      "liverpool": 7931,
      "mong": 7932,
      "scholarship": 7933,
      "##eted": 7934,
      "##bles": 7935,
      "credits": 7936,
      "begun": 7937,
      "hut": 7938,
      "egyptian": 7939,
      "carn": 7940,
      "vessel": 7941,
      "##arus": 7942,
      "moves": 7943,
      "gap": 7944,
      "sounded": 7945,
      "aunt": 7946,
      "jerry": 7947,
      "plastic": 7948,
      "recept": 7949,
      "##othy": 7950,
      "tent": 7951,
      "restored": 7952,
      "jin": 7953,
      "cheek": 7954,
      "##ception": 7955,
      "barbara": 7956,
      "lgb": 7957,
      "milk": 7958,
      "territories": 7959,
      "tier": 7960,
      "unusual": 7961,
      "provision": 7962,
      "sul": 7963,
      "##arked": 7964,
      "knife": 7965,
      "##asha": 7966,
      "rebell": 7967,
      "racial": 7968,
      "explan": 7969,
      "sean": 7970,
      "##equ": 7971,
      "blocks": 7972,
      "boats": 7973,
      "throne": 7974,
      "apost": 7975,
      "dil": 7976,
      "petr": 7977,
      "historians": 7978,
      "##rome": 7979,
      "portland": 7980,
      "mate": 7981,
      "11th": 7982,
      "volleyball": 7983,
      "youtube": 7984,
      "download": 7985,
      "bullet": 7986,
      "manh": 7987,
      "requirements": 7988,
      "birmingham": 7989,
      "##omed": 7990,
      "valid": 7991,
      "slave": 7992,
      "##39": 7993,
      "prefecture": 7994,
      "obviously": 7995,
      "griff": 7996,
      "leather": 7997,
      "peop": 7998,
      "relationships": 7999,
      "166": 8000,
      "maid": 8001,
      "cliff": 8002,
      "swall": 8003,
      "##ranean": 8004,
      "summary": 8005,
      "##37": 8006,
      "talent": 8007,
      "bug": 8008,
      "depending": 8009,
      "chemistry": 8010,
      "indicated": 8011,
      "##hard": 8012,
      "worksh": 8013,
      "##195": 8014,
      "hav": 8015,
      "sleeping": 8016,
      "ff": 8017,
      "faster": 8018,
      "##inted": 8019,
      "burst": 8020,
      "emerged": 8021,
      "myster": 8022,
      "vary": 8023,
      "jerem": 8024,
      "parking": 8025,
      "##mate": 8026,
      "err": 8027,
      "##amer": 8028,
      "listening": 8029,
      "prove": 8030,
      "au": 8031,
      "shouted": 8032,
      "horr": 8033,
      "reprod": 8034,
      "principles": 8035,
      "rowspan": 8036,
      "touched": 8037,
      "wayne": 8038,
      "hanging": 8039,
      "##bul": 8040,
      "nad": 8041,
      "##acht": 8042,
      "credited": 8043,
      "surge": 8044,
      "frances": 8045,
      "len": 8046,
      "lig": 8047,
      "bak": 8048,
      "##million": 8049,
      "exha": 8050,
      "happens": 8051,
      "blow": 8052,
      "evans": 8053,
      "drinking": 8054,
      "ladies": 8055,
      "technique": 8056,
      "locality": 8057,
      "##lie": 8058,
      "1894": 8059,
      "wrapped": 8060,
      "165": 8061,
      "occupation": 8062,
      "sentence": 8063,
      "##amental": 8064,
      "database": 8065,
      "nest": 8066,
      "controversy": 8067,
      "##enne": 8068,
      "discussion": 8069,
      "pian": 8070,
      "fifa": 8071,
      "##oka": 8072,
      "resort": 8073,
      "exception": 8074,
      "##igar": 8075,
      "##eenth": 8076,
      "export": 8077,
      "behavi": 8078,
      "va": 8079,
      "ri": 8080,
      "stamp": 8081,
      "appearing": 8082,
      "garr": 8083,
      "##thy": 8084,
      "bobby": 8085,
      "susan": 8086,
      "constitutional": 8087,
      "appointment": 8088,
      "spending": 8089,
      "##urt": 8090,
      "filmography": 8091,
      "roots": 8092,
      "##ophone": 8093,
      "poets": 8094,
      "possibility": 8095,
      "maintenance": 8096,
      "##ussion": 8097,
      "bil": 8098,
      "peoples": 8099,
      "lgbt": 8100,
      "##attan": 8101,
      "jung": 8102,
      "proof": 8103,
      "##case": 8104,
      "https": 8105,
      "rip": 8106,
      "parker": 8107,
      "##oga": 8108,
      "guar": 8109,
      "suspic": 8110,
      "1892": 8111,
      "2000s": 8112,
      "##erce": 8113,
      "instrumental": 8114,
      "charlotte": 8115,
      "##lock": 8116,
      "swing": 8117,
      "experimental": 8118,
      "forests": 8119,
      "kate": 8120,
      "sheriff": 8121,
      "vessels": 8122,
      "##hs": 8123,
      "##sters": 8124,
      "rates": 8125,
      "dakota": 8126,
      "##imp": 8127,
      "hosts": 8128,
      "shrugged": 8129,
      "larry": 8130,
      "1885": 8131,
      "mechanical": 8132,
      "genera": 8133,
      "supplies": 8134,
      "phoenix": 8135,
      "02": 8136,
      "optim": 8137,
      "charter": 8138,
      "##kar": 8139,
      "sultan": 8140,
      "breakfast": 8141,
      "##lov": 8142,
      "recommend": 8143,
      "subur": 8144,
      "replacement": 8145,
      "04": 8146,
      "suggests": 8147,
      "font": 8148,
      "centers": 8149,
      "coverage": 8150,
      "crimes": 8151,
      "approval": 8152,
      "dart": 8153,
      "gabriel": 8154,
      "mediter": 8155,
      "encycl": 8156,
      "cosm": 8157,
      "monster": 8158,
      "nr": 8159,
      "##ographics": 8160,
      "##bach": 8161,
      "1891": 8162,
      "rapidly": 8163,
      "##olves": 8164,
      "##ski": 8165,
      "describe": 8166,
      "allied": 8167,
      "naked": 8168,
      "illegal": 8169,
      "anx": 8170,
      "rico": 8171,
      "remove": 8172,
      "tourist": 8173,
      "pent": 8174,
      "##oker": 8175,
      "photos": 8176,
      "coaching": 8177,
      "nu": 8178,
      "nba": 8179,
      "##lington": 8180,
      "manage": 8181,
      "##mus": 8182,
      "bast": 8183,
      "strategic": 8184,
      "patrol": 8185,
      "iranian": 8186,
      "bishops": 8187,
      "losses": 8188,
      "fled": 8189,
      "marvel": 8190,
      "pandemic": 8191,
      "businessman": 8192,
      "guitarist": 8193,
      "exit": 8194,
      "baptist": 8195,
      "rounds": 8196,
      "frustr": 8197,
      "##urally": 8198,
      "sung": 8199,
      "ht": 8200,
      "stones": 8201,
      "71": 8202,
      "seriously": 8203,
      "##bean": 8204,
      "whereas": 8205,
      "synthes": 8206,
      "##asi": 8207,
      "hull": 8208,
      "venues": 8209,
      "missions": 8210,
      "markets": 8211,
      "quart": 8212,
      "triple": 8213,
      "nova": 8214,
      "1888": 8215,
      "philosopher": 8216,
      "aj": 8217,
      "reputation": 8218,
      "lun": 8219,
      "photographer": 8220,
      "width": 8221,
      "##efa": 8222,
      "##orf": 8223,
      "sink": 8224,
      "ruth": 8225,
      "moral": 8226,
      "meets": 8227,
      "statue": 8228,
      "taste": 8229,
      "gust": 8230,
      "##iri": 8231,
      "embr": 8232,
      "marit": 8233,
      "scientist": 8234,
      "dawn": 8235,
      "proud": 8236,
      "demographics": 8237,
      "hood": 8238,
      "mitchell": 8239,
      "##iko": 8240,
      "progressive": 8241,
      "inhib": 8242,
      "fitz": 8243,
      "components": 8244,
      "immediate": 8245,
      "fulf": 8246,
      "oblast": 8247,
      "lex": 8248,
      "prosp": 8249,
      "jama": 8250,
      "bottle": 8251,
      "martial": 8252,
      "##anche": 8253,
      "hence": 8254,
      "##agg": 8255,
      "debuted": 8256,
      "restoration": 8257,
      "fib": 8258,
      "mul": 8259,
      "sergeant": 8260,
      "alp": 8261,
      "legislature": 8262,
      "entre": 8263,
      "hindu": 8264,
      "paused": 8265,
      "medals": 8266,
      "knees": 8267,
      "withdraw": 8268,
      "tool": 8269,
      "##inations": 8270,
      "tiss": 8271,
      "py": 8272,
      "##wer": 8273,
      "surviv": 8274,
      "exposed": 8275,
      "pride": 8276,
      "beast": 8277,
      "uefa": 8278,
      "cited": 8279,
      "activist": 8280,
      "##nan": 8281,
      "possess": 8282,
      "##away": 8283,
      "marath": 8284,
      "channels": 8285,
      "incorpor": 8286,
      "##iar": 8287,
      "##sea": 8288,
      "##mel": 8289,
      "##omen": 8290,
      "##inter": 8291,
      "emer": 8292,
      "blade": 8293,
      "nicholas": 8294,
      "reconstr": 8295,
      "84": 8296,
      "boundary": 8297,
      "##nia": 8298,
      "moder": 8299,
      "abuse": 8300,
      "##illo": 8301,
      "upgr": 8302,
      "##owski": 8303,
      "sacred": 8304,
      "dock": 8305,
      "##adi": 8306,
      "ig": 8307,
      "gul": 8308,
      "##uccess": 8309,
      "commerce": 8310,
      "signif": 8311,
      "##oop": 8312,
      "initiative": 8313,
      "tourism": 8314,
      "prol": 8315,
      "vit": 8316,
      "operates": 8317,
      "voy": 8318,
      "abbey": 8319,
      "consciousness": 8320,
      "amy": 8321,
      "commem": 8322,
      "formally": 8323,
      "emotional": 8324,
      "##eta": 8325,
      "victim": 8326,
      "exercise": 8327,
      "hebrew": 8328,
      "characteristics": 8329,
      "tib": 8330,
      "##cm": 8331,
      "dated": 8332,
      "lp": 8333,
      "origins": 8334,
      "cabin": 8335,
      "unsuccess": 8336,
      "yu": 8337,
      "##ivia": 8338,
      "##rical": 8339,
      "##master": 8340,
      "82": 8341,
      "meetings": 8342,
      "kissed": 8343,
      "bic": 8344,
      "muslims": 8345,
      "agencies": 8346,
      "##iration": 8347,
      "choir": 8348,
      "mull": 8349,
      "corp": 8350,
      "lingu": 8351,
      "adopt": 8352,
      "decisions": 8353,
      "bench": 8354,
      "portrayed": 8355,
      "industries": 8356,
      "democracy": 8357,
      "identify": 8358,
      "tale": 8359,
      "ferr": 8360,
      "retained": 8361,
      "classified": 8362,
      "defeating": 8363,
      "symphony": 8364,
      "scout": 8365,
      "##ersed": 8366,
      "##yon": 8367,
      "happening": 8368,
      "minimum": 8369,
      "##uda": 8370,
      "benefits": 8371,
      "basin": 8372,
      "dying": 8373,
      "##rix": 8374,
      "nervous": 8375,
      "wonderful": 8376,
      "##ivated": 8377,
      "warner": 8378,
      "counsel": 8379,
      "guer": 8380,
      "##boy": 8381,
      "167": 8382,
      "##itched": 8383,
      "ral": 8384,
      "drunk": 8385,
      "serial": 8386,
      "easier": 8387,
      "##ulous": 8388,
      "madrid": 8389,
      "forum": 8390,
      "guardian": 8391,
      "diction": 8392,
      "##olt": 8393,
      "vlad": 8394,
      "stem": 8395,
      "indicate": 8396,
      "eagle": 8397,
      "##abled": 8398,
      "encyclop": 8399,
      "avo": 8400,
      "sara": 8401,
      "warriors": 8402,
      "trading": 8403,
      "##rett": 8404,
      "##iciency": 8405,
      "gates": 8406,
      "chel": 8407,
      "acted": 8408,
      "abra": 8409,
      "mend": 8410,
      "giants": 8411,
      "nun": 8412,
      "strongly": 8413,
      "1887": 8414,
      "liz": 8415,
      "resemb": 8416,
      "dual": 8417,
      "operational": 8418,
      "##mund": 8419,
      "processing": 8420,
      "amendment": 8421,
      "volumes": 8422,
      "scope": 8423,
      "simpl": 8424,
      "pine": 8425,
      "fi": 8426,
      "holiday": 8427,
      "hawaii": 8428,
      "appropriate": 8429,
      "##nda": 8430,
      "transit": 8431,
      "indians": 8432,
      "rou": 8433,
      "colors": 8434,
      "revel": 8435,
      "luis": 8436,
      "mum": 8437,
      "marcus": 8438,
      "gut": 8439,
      "bub": 8440,
      "proposal": 8441,
      "##orship": 8442,
      "##agement": 8443,
      "craig": 8444,
      "richmond": 8445,
      "powered": 8446,
      "goog": 8447,
      "##urg": 8448,
      "heir": 8449,
      "mediterranean": 8450,
      "genre": 8451,
      "1880": 8452,
      "tri": 8453,
      "lis": 8454,
      "meg": 8455,
      "breat": 8456,
      "stable": 8457,
      "assum": 8458,
      "filed": 8459,
      "strict": 8460,
      "witch": 8461,
      "corrid": 8462,
      "deeply": 8463,
      "increasingly": 8464,
      "eliminated": 8465,
      "fol": 8466,
      "terry": 8467,
      "lawyers": 8468,
      "controll": 8469,
      "teleph": 8470,
      "summit": 8471,
      "81": 8472,
      "files": 8473,
      "friendship": 8474,
      "criticized": 8475,
      "biological": 8476,
      "##enson": 8477,
      "violent": 8478,
      "prad": 8479,
      "virtual": 8480,
      "customers": 8481,
      "mig": 8482,
      "breathing": 8483,
      "seeds": 8484,
      "coron": 8485,
      "ip": 8486,
      "echo": 8487,
      "equipped": 8488,
      "##ahn": 8489,
      "sha": 8490,
      "wang": 8491,
      "reinfor": 8492,
      "wise": 8493,
      "luther": 8494,
      "yorkshire": 8495,
      "##erbai": 8496,
      "##obi": 8497,
      "commanded": 8498,
      "buffalo": 8499,
      "representation": 8500,
      "cyl": 8501,
      "smiling": 8502,
      "glasgow": 8503,
      "##iture": 8504,
      "injuries": 8505,
      "unto": 8506,
      "adaptation": 8507,
      "cargo": 8508,
      "dollars": 8509,
      "tigers": 8510,
      "sending": 8511,
      "##cement": 8512,
      "guests": 8513,
      "bless": 8514,
      "bacter": 8515,
      "ports": 8516,
      "azerbai": 8517,
      "tribes": 8518,
      "gradually": 8519,
      "voting": 8520,
      "appreci": 8521,
      "fabric": 8522,
      "##alis": 8523,
      "sne": 8524,
      "denied": 8525,
      "gott": 8526,
      "milan": 8527,
      "poison": 8528,
      "genetic": 8529,
      "##ibute": 8530,
      "##fare": 8531,
      "streng": 8532,
      "jaw": 8533,
      "stir": 8534,
      "exists": 8535,
      "kap": 8536,
      "wildlife": 8537,
      "bra": 8538,
      "nigeria": 8539,
      "participation": 8540,
      "demon": 8541,
      "blond": 8542,
      "##antine": 8543,
      "archives": 8544,
      "glory": 8545,
      "pc": 8546,
      "absence": 8547,
      "mines": 8548,
      "electricity": 8549,
      "##cred": 8550,
      "bother": 8551,
      "traveled": 8552,
      "mills": 8553,
      "##phy": 8554,
      "##aha": 8555,
      "1886": 8556,
      "##omon": 8557,
      "##ulating": 8558,
      "##opes": 8559,
      "organis": 8560,
      "tommy": 8561,
      "##after": 8562,
      "debt": 8563,
      "victorian": 8564,
      "##mother": 8565,
      "serbia": 8566,
      "nomination": 8567,
      "clou": 8568,
      "bread": 8569,
      "##pled": 8570,
      "resid": 8571,
      "keith": 8572,
      "syl": 8573,
      "perce": 8574,
      "radical": 8575,
      "architectural": 8576,
      "1865": 8577,
      "##yler": 8578,
      "integrated": 8579,
      "farmers": 8580,
      "catherine": 8581,
      "##osph": 8582,
      "definitely": 8583,
      "raising": 8584,
      "##uable": 8585,
      "depict": 8586,
      "acknowled": 8587,
      "printed": 8588,
      "das": 8589,
      "consol": 8590,
      "mold": 8591,
      "participants": 8592,
      "blog": 8593,
      "archbishop": 8594,
      "purple": 8595,
      "hack": 8596,
      "gospel": 8597,
      "gau": 8598,
      "conclusion": 8599,
      "##ipts": 8600,
      "jury": 8601,
      "bathroom": 8602,
      "successor": 8603,
      "flows": 8604,
      "vanc": 8605,
      "psychology": 8606,
      "anywhere": 8607,
      "tyr": 8608,
      "spaces": 8609,
      "illness": 8610,
      "achievement": 8611,
      "lag": 8612,
      "##eries": 8613,
      "cypr": 8614,
      "delhi": 8615,
      "loose": 8616,
      "##ido": 8617,
      "bry": 8618,
      "##ouver": 8619,
      "##31": 8620,
      "beck": 8621,
      "aaron": 8622,
      "excellent": 8623,
      "ecc": 8624,
      "##athy": 8625,
      "arabic": 8626,
      "steven": 8627,
      "foster": 8628,
      "##lus": 8629,
      "afford": 8630,
      "uncert": 8631,
      "##itate": 8632,
      "acoust": 8633,
      "turner": 8634,
      "##estone": 8635,
      "duc": 8636,
      "chat": 8637,
      "lanka": 8638,
      "toss": 8639,
      "governments": 8640,
      "##zi": 8641,
      "trinity": 8642,
      "##oba": 8643,
      "lift": 8644,
      "segment": 8645,
      "##otype": 8646,
      "##mates": 8647,
      "eddie": 8648,
      "##abilities": 8649,
      "playoffs": 8650,
      "ou": 8651,
      "##elia": 8652,
      "manga": 8653,
      "modified": 8654,
      "##ulu": 8655,
      "shaking": 8656,
      "chi": 8657,
      "reporter": 8658,
      "caribbean": 8659,
      "detailed": 8660,
      "lions": 8661,
      "130": 8662,
      "##enberg": 8663,
      "involvement": 8664,
      "semif": 8665,
      "extent": 8666,
      "shakes": 8667,
      "yam": 8668,
      "lifetime": 8669,
      "filmed": 8670,
      "beating": 8671,
      "popularity": 8672,
      "##rant": 8673,
      "cotton": 8674,
      "spider": 8675,
      "unp": 8676,
      "##bled": 8677,
      "##nik": 8678,
      "acquis": 8679,
      "paralymp": 8680,
      "cbs": 8681,
      "##vere": 8682,
      "butt": 8683,
      "permission": 8684,
      "stol": 8685,
      "aggress": 8686,
      "commune": 8687,
      "funny": 8688,
      "##osing": 8689,
      "##imir": 8690,
      "outl": 8691,
      "penalty": 8692,
      "94": 8693,
      "ghana": 8694,
      "gem": 8695,
      "##itter": 8696,
      "surviving": 8697,
      "perp": 8698,
      "argument": 8699,
      "stern": 8700,
      "##gate": 8701,
      "earthqu": 8702,
      "costa": 8703,
      "##sm": 8704,
      "##olia": 8705,
      "##eled": 8706,
      "##lings": 8707,
      "decline": 8708,
      "perspective": 8709,
      "beth": 8710,
      "rangers": 8711,
      "extract": 8712,
      "runners": 8713,
      "practical": 8714,
      "quad": 8715,
      "concentration": 8716,
      "replacing": 8717,
      "sz": 8718,
      "mick": 8719,
      "alaska": 8720,
      "leo": 8721,
      "##feld": 8722,
      "sharing": 8723,
      "survival": 8724,
      "collins": 8725,
      "emotion": 8726,
      "hurricane": 8727,
      "godd": 8728,
      "##ju": 8729,
      "##rin": 8730,
      "cruc": 8731,
      "manip": 8732,
      "sessions": 8733,
      "laughing": 8734,
      "cott": 8735,
      "principle": 8736,
      "hast": 8737,
      "##erning": 8738,
      "suspended": 8739,
      "afghanistan": 8740,
      "92": 8741,
      "qur": 8742,
      "root": 8743,
      "1864": 8744,
      "google": 8745,
      "anat": 8746,
      "harrison": 8747,
      "prel": 8748,
      "sut": 8749,
      "emotions": 8750,
      "hearts": 8751,
      "shoes": 8752,
      "killer": 8753,
      "aimed": 8754,
      "enemies": 8755,
      "informed": 8756,
      "keys": 8757,
      "##95": 8758,
      "gamb": 8759,
      "1884": 8760,
      "##erted": 8761,
      "unex": 8762,
      "rus": 8763,
      "jurisd": 8764,
      "neil": 8765,
      "##ingham": 8766,
      "lamp": 8767,
      "##umps": 8768,
      "monastery": 8769,
      "##nal": 8770,
      "simult": 8771,
      "creatures": 8772,
      "tempor": 8773,
      "1861": 8774,
      "nearest": 8775,
      "##oko": 8776,
      "1870": 8777,
      "kirk": 8778,
      "1920s": 8779,
      "guinea": 8780,
      "peru": 8781,
      "percussion": 8782,
      "bru": 8783,
      "wisdom": 8784,
      "simultane": 8785,
      "orn": 8786,
      "vancouver": 8787,
      "archaeological": 8788,
      "advertising": 8789,
      "bour": 8790,
      "peer": 8791,
      "wand": 8792,
      "harbor": 8793,
      "##ickets": 8794,
      "uncom": 8795,
      "limits": 8796,
      "##anes": 8797,
      "anime": 8798,
      "democrats": 8799,
      "##udes": 8800,
      "##encer": 8801,
      "laura": 8802,
      "##laimed": 8803,
      "similarly": 8804,
      "##ifice": 8805,
      "biology": 8806,
      "incumbent": 8807,
      "##theless": 8808,
      "trials": 8809,
      "rag": 8810,
      "##ivation": 8811,
      "nevertheless": 8812,
      "nurse": 8813,
      "daw": 8814,
      "cooperation": 8815,
      "relev": 8816,
      "railways": 8817,
      "timber": 8818,
      "ling": 8819,
      "theod": 8820,
      "amazing": 8821,
      "rhod": 8822,
      "rachel": 8823,
      "ced": 8824,
      "sak": 8825,
      "##ivan": 8826,
      "airlines": 8827,
      "abraham": 8828,
      "stim": 8829,
      "##aments": 8830,
      "ninth": 8831,
      "suppress": 8832,
      "effectively": 8833,
      "considerable": 8834,
      "confer": 8835,
      "hed": 8836,
      "bones": 8837,
      "influential": 8838,
      "greatly": 8839,
      "##icking": 8840,
      "loop": 8841,
      "forgotten": 8842,
      "tales": 8843,
      "sebast": 8844,
      "110": 8845,
      "##uka": 8846,
      "nevada": 8847,
      "##jar": 8848,
      "nebr": 8849,
      "##iph": 8850,
      "siege": 8851,
      "ultimate": 8852,
      "shifted": 8853,
      "longest": 8854,
      "unn": 8855,
      "merely": 8856,
      "continental": 8857,
      "jet": 8858,
      "krist": 8859,
      "ceiling": 8860,
      "functional": 8861,
      "festivals": 8862,
      "wells": 8863,
      "##86": 8864,
      "wip": 8865,
      "opportunities": 8866,
      "micr": 8867,
      "declined": 8868,
      "vern": 8869,
      "citizen": 8870,
      "##oly": 8871,
      "trend": 8872,
      "ideal": 8873,
      "apply": 8874,
      "hugh": 8875,
      "##donald": 8876,
      "##dles": 8877,
      "glen": 8878,
      "tat": 8879,
      "1881": 8880,
      "pace": 8881,
      "##oys": 8882,
      "deserv": 8883,
      "themes": 8884,
      "texts": 8885,
      "statist": 8886,
      "1000": 8887,
      "vig": 8888,
      "viv": 8889,
      "sporting": 8890,
      "fucking": 8891,
      "revenue": 8892,
      "##break": 8893,
      "lisa": 8894,
      "##oca": 8895,
      "##val": 8896,
      "totally": 8897,
      "competing": 8898,
      "sic": 8899,
      "triang": 8900,
      "maps": 8901,
      "alpha": 8902,
      "1863": 8903,
      "backed": 8904,
      "##opp": 8905,
      "awar": 8906,
      "careful": 8907,
      "lasted": 8908,
      "affair": 8909,
      "yield": 8910,
      "##inction": 8911,
      "moh": 8912,
      "excess": 8913,
      "researchers": 8914,
      "releases": 8915,
      "lav": 8916,
      "aber": 8917,
      "liberty": 8918,
      "preserved": 8919,
      "recovered": 8920,
      "discussed": 8921,
      "manhattan": 8922,
      "bristol": 8923,
      "glac": 8924,
      "departure": 8925,
      "sculpture": 8926,
      "emma": 8927,
      "##agger": 8928,
      "attracted": 8929,
      "harold": 8930,
      "maced": 8931,
      "##eno": 8932,
      "emily": 8933,
      "worn": 8934,
      "celebrated": 8935,
      "aur": 8936,
      "gn": 8937,
      "signing": 8938,
      "standings": 8939,
      "confidence": 8940,
      "patt": 8941,
      "##leep": 8942,
      "nights": 8943,
      "evangel": 8944,
      "gonna": 8945,
      "conj": 8946,
      "##34": 8947,
      "youngest": 8948,
      "##icance": 8949,
      "monday": 8950,
      "peaked": 8951,
      "yang": 8952,
      "comprehens": 8953,
      "cleared": 8954,
      "funeral": 8955,
      "##97": 8956,
      "91": 8957,
      "transmission": 8958,
      "upset": 8959,
      "eve": 8960,
      "outd": 8961,
      "collaps": 8962,
      "incred": 8963,
      "moths": 8964,
      "encouraged": 8965,
      "ibn": 8966,
      "collective": 8967,
      "eggs": 8968,
      "flav": 8969,
      "##fia": 8970,
      "dirt": 8971,
      "##iters": 8972,
      "awareness": 8973,
      "##aca": 8974,
      "convinced": 8975,
      "ost": 8976,
      "prophet": 8977,
      "concerning": 8978,
      "borders": 8979,
      "##hum": 8980,
      "machines": 8981,
      "##iece": 8982,
      "cutting": 8983,
      "copper": 8984,
      "cinc": 8985,
      "tribut": 8986,
      "comfortable": 8987,
      "rust": 8988,
      "ordinary": 8989,
      "orb": 8990,
      "illustrated": 8991,
      "##itarian": 8992,
      "hiding": 8993,
      "hispan": 8994,
      "##fire": 8995,
      "lil": 8996,
      "completion": 8997,
      "##oving": 8998,
      "contribution": 8999,
      "cort": 9000,
      "##crimin": 9001,
      "therapy": 9002,
      "pere": 9003,
      "##yll": 9004,
      "manor": 9005,
      "##zo": 9006,
      "isab": 9007,
      "nbc": 9008,
      "enthus": 9009,
      "##idad": 9010,
      "demanded": 9011,
      "sheep": 9012,
      "slovak": 9013,
      "chancell": 9014,
      "alberta": 9015,
      "##lett": 9016,
      "##utely": 9017,
      "girlfriend": 9018,
      "maritime": 9019,
      "recur": 9020,
      "pradesh": 9021,
      "yank": 9022,
      "murdered": 9023,
      "button": 9024,
      "adela": 9025,
      "aggreg": 9026,
      "kle": 9027,
      "competitive": 9028,
      "demolished": 9029,
      "##eva": 9030,
      "antar": 9031,
      "##ieve": 9032,
      "contents": 9033,
      "photographs": 9034,
      "philippine": 9035,
      "considering": 9036,
      "nepal": 9037,
      "knee": 9038,
      "expensive": 9039,
      "significance": 9040,
      "specim": 9041,
      "##ye": 9042,
      "patterns": 9043,
      "bald": 9044,
      "##fish": 9045,
      "animation": 9046,
      "hi": 9047,
      "possession": 9048,
      "interpretation": 9049,
      "##cling": 9050,
      "##teenth": 9051,
      "1882": 9052,
      "brill": 9053,
      "civilian": 9054,
      "amph": 9055,
      "##icity": 9056,
      "colored": 9057,
      "spark": 9058,
      "##hill": 9059,
      "recommended": 9060,
      "##berry": 9061,
      "##credited": 9062,
      "taxa": 9063,
      "##ivery": 9064,
      "##98": 9065,
      "##ving": 9066,
      "tut": 9067,
      "##enburg": 9068,
      "##anim": 9069,
      "wanting": 9070,
      "anthrop": 9071,
      "versus": 9072,
      "##hal": 9073,
      "##ords": 9074,
      "pete": 9075,
      "wu": 9076,
      "pub": 9077,
      "vampire": 9078,
      "companion": 9079,
      "technologies": 9080,
      "elite": 9081,
      "licensed": 9082,
      "155": 9083,
      "gren": 9084,
      "##stad": 9085,
      "moll": 9086,
      "1862": 9087,
      "##ibilities": 9088,
      "saudi": 9089,
      "letting": 9090,
      "##bie": 9091,
      "##acon": 9092,
      "render": 9093,
      "managing": 9094,
      "monthly": 9095,
      "##isha": 9096,
      "nebraska": 9097,
      "belonged": 9098,
      "kab": 9099,
      "fid": 9100,
      "duo": 9101,
      "voiced": 9102,
      "escaped": 9103,
      "wool": 9104,
      "##rah": 9105,
      "slipped": 9106,
      "##brid": 9107,
      "##fs": 9108,
      "geomet": 9109,
      "output": 9110,
      "artific": 9111,
      "delivery": 9112,
      "asleep": 9113,
      "butler": 9114,
      "jail": 9115,
      "beij": 9116,
      "remark": 9117,
      "explo": 9118,
      "roster": 9119,
      "sap": 9120,
      "md": 9121,
      "guarant": 9122,
      "mant": 9123,
      "slid": 9124,
      "couples": 9125,
      "hammer": 9126,
      "colombia": 9127,
      "##acles": 9128,
      "shaw": 9129,
      "locomotives": 9130,
      "##endar": 9131,
      "jen": 9132,
      "dirty": 9133,
      "kidn": 9134,
      "todd": 9135,
      "atom": 9136,
      "remote": 9137,
      "wik": 9138,
      "henri": 9139,
      "valuable": 9140,
      "roberts": 9141,
      "ferry": 9142,
      "ranks": 9143,
      "answers": 9144,
      "##stairs": 9145,
      "ingr": 9146,
      "indoor": 9147,
      "wished": 9148,
      "thorough": 9149,
      "filip": 9150,
      "apparent": 9151,
      "regime": 9152,
      "montana": 9153,
      "activists": 9154,
      "##96": 9155,
      "obtain": 9156,
      "cream": 9157,
      "##jab": 9158,
      "rodrig": 9159,
      "##ete": 9160,
      "cuba": 9161,
      "persian": 9162,
      "intense": 9163,
      "swift": 9164,
      "##urers": 9165,
      "wides": 9166,
      "subsidi": 9167,
      "lucy": 9168,
      "##anged": 9169,
      "uh": 9170,
      "blast": 9171,
      "prest": 9172,
      "##inae": 9173,
      "occasions": 9174,
      "##avan": 9175,
      "galax": 9176,
      "anticip": 9177,
      "feather": 9178,
      "entrepr": 9179,
      "protests": 9180,
      "rect": 9181,
      "##aco": 9182,
      "bars": 9183,
      "arrangement": 9184,
      "##rection": 9185,
      "suppose": 9186,
      "christianity": 9187,
      "cec": 9188,
      "##kan": 9189,
      "kol": 9190,
      "##bot": 9191,
      "propag": 9192,
      "servant": 9193,
      "shares": 9194,
      "submarine": 9195,
      "makeup": 9196,
      "rarely": 9197,
      "cried": 9198,
      "##enia": 9199,
      "beet": 9200,
      "##eing": 9201,
      "1883": 9202,
      "premiere": 9203,
      "##oning": 9204,
      "stall": 9205,
      "helps": 9206,
      "##eli": 9207,
      "herbert": 9208,
      "platforms": 9209,
      "mechanism": 9210,
      "allies": 9211,
      "700": 9212,
      "commented": 9213,
      "alger": 9214,
      "##keeper": 9215,
      "overseas": 9216,
      "venue": 9217,
      "sull": 9218,
      "merit": 9219,
      "1878": 9220,
      "##nell": 9221,
      "sket": 9222,
      "##folk": 9223,
      "posted": 9224,
      "##isb": 9225,
      "##olds": 9226,
      "indicates": 9227,
      "disaster": 9228,
      "angle": 9229,
      "coinc": 9230,
      "distant": 9231,
      "oz": 9232,
      "1876": 9233,
      "telec": 9234,
      "lamb": 9235,
      "##avery": 9236,
      "##oded": 9237,
      "shower": 9238,
      "recognize": 9239,
      "volunteer": 9240,
      "crick": 9241,
[...]
